<unk>	0
<s>	0
</s>	0
<pad>	0
ال	-0
▁ال	-1
▁و	-2
▁م	-3
▁ب	-4
▁ف	-5
▁ل	-6
▁أ	-7
▁ع	-8
ية	-9
▁الم	-10
▁ت	-11
ات	-12
ان	-13
▁من	-14
ار	-15
▁في	-16
▁ي	-17
ين	-18
ام	-19
ها	-20
لى	-21
▁ك	-22
▁إ	-23
▁وال	-24
ير	-25
▁الت	-26
▁ا	-27
ول	-28
▁ح	-29
را	-30
نا	-31
▁الأ	-32
ون	-33
▁س	-34
ري	-35
▁ق	-36
لا	-37
▁الع	-38
ما	-39
لي	-40
▁ه	-41
ست	-42
وا	-43
▁على	-44
▁ن	-45
دي	-46
ور	-47
▁أن	-48
اب	-49
▁ج	-50
▁لل	-51
▁الس	-52
يا	-53
هم	-54
▁الح	-55
دة	-56
▁ش	-57
دا	-58
▁ر	-59
وم	-60
▁بال	-61
▁خ	-62
بي	-63
▁عن	-64
لك	-65
▁،	-66
▁الا	-67
▁الق	-68
▁ص	-69
ذا	-70
▁الش	-71
▁الج	-72
▁مع	-73
▁د	-74
يل	-75
اء	-76
رب	-77
▁الإ	-78
▁الب	-79
ائ	-80
رة	-81
اد	-82
لم	-83
رك	-84
له	-85
▁إلى	-86
عة	-87
▁الف	-88
من	-89
▁الن	-90
عد	-91
▁الد	-92
اف	-93
▁وت	-94
قة	-95
مل	-96
▁الك	-97
▁ان	-98
▁الخ	-99
قد	-100
▁لا	-101
مة	-102
يد	-103
وق	-104
▁ما	-105
بر	-106
ود	-107
▁الص	-108
▁الر	-109
مي	-110
▁ط	-111
سي	-112
▁التي	-113
▁الذ	-114
▁وأ	-115
كن	-116
سب	-117
لة	-118
في	-119
▁أو	-120
رو	-121
▁علي	-122
اع	-123
ني	-124
تم	-125
قي	-126
نت	-127
▁غ	-128
حت	-129
عل	-130
سم	-131
رف	-132
ذه	-133
سل	-134
حد	-135
ــ	-136
▁الله	-137
با	-138
▁كان	-139
ذلك	-140
▁لم	-141
وي	-142
▁الو	-143
ته	-144
▁وا	-145
حم	-146
يس	-147
بة	-148
يف	-149
▁وم	-150
ارة	-151
تي	-152
بل	-153
▁الط	-154
▁هذا	-155
خر	-156
كل	-157
حة	-158
كر	-159
▁تع	-160
اص	-161
مر	-162
▁وه	-163
اني	-164
اه	-165
وج	-166
قت	-167
▁ث	-168
▁كل	-169
▁وي	-170
جل	-171
صل	-172
شر	-173
▁الث	-174
▁الذي	-175
سا	-176
▁مت	-177
لال	-178
▁بن	-179
▁إن	-180
وع	-181
▁است	-182
▁الي	-183
▁المت	-184
لف	-185
▁هذه	-186
رض	-187
كون	-188
وف	-189
دم	-190
أن	-191
جم	-192
بد	-193
كم	-194
عا	-195
▁ز	-196
▁بين	-197
عت	-198
▁والم	-199
يم	-200
سة	-201
كت	-202
صر	-203
وب	-204
عم	-205
▁بعد	-206
اري	-207
▁أي	-208
يرة	-209
لب	-210
در	-211
وس	-212
▁وب	-213
نة	-214
يات	-215
هر	-216
خت	-217
▁ض	-218
قا	-219
دى	-220
قل	-221
راء	-222
▁يت	-223
▁آ	-224
▁مش	-225
فا	-226
كان	-227
▁هو	-228
ارات	-229
جه	-230
عب	-231
وت	-232
قال	-233
عض	-234
▁تح	-235
وض	-236
فس	-237
خل	-238
الم	-239
خص	-240
ورة	-241
ثر	-242
▁أم	-243
▁لت	-244
عي	-245
زي	-246
▁تم	-247
▁مح	-248
طة	-249
ركة	-250
▁ذلك	-251
الي	-252
ولة	-253
اج	-254
اض	-255
▁بم	-256
ديد	-257
▁والت	-258
انية	-259
▁وس	-260
وات	-261
▁الل	-262
حمد	-263
▁له	-264
ئيس	-265
دين	-266
حي	-267
بار	-268
▁مس	-269
رق	-270
تها	-271
▁عليه	-272
▁يم	-273
▁تق	-274
▁كما	-275
هد	-276
▁خلال	-277
▁وع	-278
▁العام	-279
▁الأم	-280
رج	-281
▁يع	-282
▁حي	-283
رد	-284
اح	-285
▁فى	-286
▁المن	-287
▁الغ	-288
▁ولا	-289
▁قال	-290
ريق	-291
▁سي	-292
رائ	-293
▁المش	-294
وى	-295
إن	-296
▁الى	-297
وية	-298
ند	-299
تى	-300
▁تت	-301
▁منت	-302
لام	-303
وري	-304
▁تن	-305
▁أك	-306
افة	-307
▁بت	-308
▁قد	-309
الة	-310
▁الان	-311
ضا	-312
▁المس	-313
▁لي	-314
فت	-315
عية	-316
▁عام	-317
▁المع	-318
وز	-319
ربية	-320
نية	-321
▁ذ	-322
▁للم	-323
▁اليوم	-324
رت	-325
▁ول	-326
رح	-327
رن	-328
سية	-329
جد	-330
▁هي	-331
▁اله	-332
فض	-333
▁الز	-334
وان	-335
ثل	-336
▁بل	-337
قط	-338
▁حيث	-339
قر	-340
▁عند	-341
▁به	-342
وقع	-343
▁بي	-344
الية	-345
طل	-346
ئة	-347
▁النا	-348
كي	-349
▁ومن	-350
▁حتى	-351
زة	-352
سلام	-353
▁بش	-354
▁غير	-355
▁مج	-356
▁المح	-357
▁مست	-358
ثير	-359
▁بد	-360
فع	-361
▁دا	-362
▁اب	-363
▁الآ	-364
طي	-365
وة	-366
▁ون	-367
▁قبل	-368
▁يق	-369
▁با	-370
فة	-371
▁وك	-372
ميع	-373
▁وح	-374
▁عبد	-375
وك	-376
قات	-377
▁يمكن	-378
سط	-379
▁المست	-380
ليم	-381
فر	-382
▁بح	-383
ناء	-384
به	-385
▁الاست	-386
▁أب	-387
▁مد	-388
رام	-389
▁وز	-390
▁بعض	-391
▁وج	-392
▁هنا	-393
▁مص	-394
ارك	-395
بح	-396
از	-397
دد	-398
امل	-399
▁ثم	-400
رات	-401
قدم	-402
▁محمد	-403
صف	-404
▁تج	-405
▁وإ	-406
▁أنه	-407
▁تش	-408
▁ام	-409
▁نا	-410
▁وهو	-411
اط	-412
▁العالم	-413
ومة	-414
بت	-415
▁يوم	-416
▁أس	-417
▁كانت	-418
حدة	-419
▁وق	-420
▁وفي	-421
ضي	-422
▁المص	-423
▁التع	-424
واق	-425
▁تص	-426
▁عم	-427
▁والأ	-428
▁للت	-429
يج	-430
حا	-431
تما	-432
▁الدول	-433
اصة	-434
طن	-435
وار	-436
ــــ	-437
كس	-438
ارت	-439
▁يج	-440
▁بأ	-441
▁ولك	-442
▁المج	-443
حر	-444
ابة	-445
صول	-446
▁لأ	-447
خرى	-448
عر	-449
ثة	-450
تر	-451
▁كب	-452
راق	-453
بع	-454
جة	-455
اريخ	-456
دينة	-457
جلس	-458
ظام	-459
▁ات	-460
▁بالم	-461
هل	-462
▁كت	-463
ضع	-464
بية	-465
▁مؤ	-466
▁ست	-467
يت	-468
صة	-469
▁السيا	-470
غير	-471
طر	-472
يب	-473
سبة	-474
▁بها	-475
▁العمل	-476
ديم	-477
▁إلا	-478
لت	-479
▁وف	-480
▁لكن	-481
▁وقد	-482
كا	-483
ديدة	-484
ولا	-485
سات	-486
▁ولكن	-487
▁بأن	-488
بات	-489
▁رئيس	-490
خد	-491
▁ين	-492
▁يكون	-493
▁عمل	-494
وال	-495
▁فت	-496
▁فيها	-497
▁فيه	-498
▁المد	-499
سان	-500
سن	-501
▁الجم	-502
▁إذا	-503
▁المنت	-504
حدث	-505
طقة	-506
▁نفس	-507
طف	-508
▁البي	-509
▁منتدى	-510
عات	-511
▁لأن	-512
فضل	-513
انة	-514
ظر	-515
▁المؤ	-516
ورية	-517
▁ظ	-518
لاح	-519
ودة	-520
▁تس	-521
▁وقال	-522
جتما	-523
داد	-524
▁أص	-525
▁فإن	-526
▁او	-527
زل	-528
وح	-529
▁مثل	-530
ارج	-531
وه	-532
بط	-533
لق	-534
وني	-535
▁أع	-536
ائل	-537
ختلف	-538
يني	-539
وعة	-540
▁الض	-541
رم	-542
ربي	-543
▁يح	-544
▁أكثر	-545
▁تأ	-546
هي	-547
▁الشي	-548
قيق	-549
▁أخ	-550
ريد	-551
▁وكان	-552
▁شي	-553
داء	-554
يلة	-555
▁انت	-556
▁إلي	-557
▁الأس	-558
راج	-559
▁الإن	-560
▁جم	-561
ركز	-562
▁العربية	-563
▁يست	-564
عود	-565
قب	-566
رياض	-567
امج	-568
راف	-569
▁لن	-570
▁حول	-571
عمال	-572
شي	-573
امة	-574
▁والع	-575
▁الموا	-576
▁الات	-577
مت	-578
الات	-579
▁هناك	-580
ليل	-581
▁تحت	-582
▁شركة	-583
▁الحك	-584
▁لها	-585
▁تد	-586
كية	-587
▁نح	-588
▁أيضا	-589
▁تط	-590
صد	-591
▁جميع	-592
وص	-593
ارية	-594
▁رس	-595
جر	-596
فل	-597
ماء	-598
يش	-599
▁قر	-600
ديث	-601
▁الرئيس	-602
▁مصر	-603
انون	-604
شف	-605
▁سن	-606
خدم	-607
▁الذين	-608
واء	-609
يرا	-610
▁التح	-611
هما	-612
لاء	-613
▁يد	-614
ظم	-615
▁الام	-616
رس	-617
▁الأخ	-618
▁المنا	-619
▁بالت	-620
نى	-621
افظ	-622
▁الأول	-623
▁يش	-624
▁عدد	-625
▁بشكل	-626
▁بع	-627
▁القر	-628
أس	-629
سبب	-630
قتص	-631
▁أش	-632
فاع	-633
يه	-634
رفة	-635
▁لك	-636
▁التن	-637
كة	-638
▁الإسلام	-639
ينا	-640
▁دون	-641
▁يا	-642
▁بإ	-643
▁خط	-644
قول	-645
سرائ	-646
▁أحد	-647
ولى	-648
▁الرا	-649
مان	-650
▁لح	-651
▁وهي	-652
▁وش	-653
دارة	-654
▁يتم	-655
ركات	-656
غة	-657
وضوع	-658
لاق	-659
ومات	-660
▁وأن	-661
خدام	-662
يادة	-663
ئي	-664
▁آخر	-665
▁عليها	-666
عو	-667
▁موقع	-668
سين	-669
▁دي	-670
▁حد	-671
▁حق	-672
▁دول	-673
سر	-674
▁أح	-675
اة	-676
▁بط	-677
▁فل	-678
▁موا	-679
زيد	-680
▁الصح	-681
▁منها	-682
ظيف	-683
▁منذ	-684
رنامج	-685
▁فقط	-686
▁وان	-687
▁الناس	-688
لات	-689
ده	-690
نان	-691
▁الوط	-692
▁تكون	-693
لاث	-694
ئية	-695
ياء	-696
▁العم	-697
▁لع	-698
طار	-699
▁مق	-700
▁وذلك	-701
▁الوق	-702
ضر	-703
▁تلك	-704
▁ملي	-705
بق	-706
واقع	-707
جن	-708
ضافة	-709
الت	-710
▁اي	-711
ابات	-712
فق	-713
يز	-714
▁للا	-715
وير	-716
▁عبر	-717
ذكر	-718
رش	-719
عار	-720
ارس	-721
▁را	-722
مام	-723
▁المتحدة	-724
اعدة	-725
روع	-726
▁تست	-727
▁وسلم	-728
▁المو	-729
ياة	-730
▁الوز	-731
▁وص	-732
▁والح	-733
▁اخ	-734
طاع	-735
▁ليس	-736
▁قسم	-737
اش	-738
غم	-739
انات	-740
▁السي	-741
وط	-742
ضاف	-743
علام	-744
▁صلى	-745
تمع	-746
▁أول	-747
طال	-748
كد	-749
غي	-750
▁فر	-751
قبل	-752
ذي	-753
باب	-754
▁المغ	-755
▁لإ	-756
خب	-757
▁للأ	-758
▁نت	-759
أة	-760
▁الدا	-761
▁السل	-762
▁والإ	-763
مار	-764
▁جدا	-765
▁فقد	-766
ظيم	-767
▁شخص	-768
▁بق	-769
▁ود	-770
كثر	-771
▁وما	-772
جموعة	-773
▁بك	-774
▁اعت	-775
ائر	-776
اته	-777
جز	-778
لاف	-779
اذ	-780
▁تف	-781
لاب	-782
▁أخرى	-783
وث	-784
▁الماض	-785
ينة	-786
ينية	-787
الح	-788
▁صور	-789
▁الجز	-790
جي	-791
▁وخ	-792
ريم	-793
شرة	-794
زم	-795
الى	-796
رى	-797
ادر	-798
▁والا	-799
فاق	-800
ريف	-801
▁التج	-802
▁منه	-803
▁العامة	-804
زب	-805
انب	-806
▁الجن	-807
لاد	-808
حاد	-809
ساء	-810
▁مجلس	-811
ولي	-812
▁عل	-813
هو	-814
▁لج	-815
▁ولي	-816
ادة	-817
قاء	-818
▁يس	-819
▁لب	-820
ضاء	-821
يران	-822
ئا	-823
▁ابن	-824
عودية	-825
▁مو	-826
ربع	-827
راه	-828
▁أف	-829
بيع	-830
ضة	-831
▁حل	-832
اعة	-833
راد	-834
▁والتي	-835
لاج	-836
▁أما	-837
انا	-838
مية	-839
وقف	-840
▁اخت	-841
مو	-842
ظهر	-843
سلسل	-844
اق	-845
حميل	-846
▁لو	-847
باد	-848
▁ور	-849
يين	-850
▁الاجتما	-851
طب	-852
▁المر	-853
▁فيما	-854
مال	-855
سك	-856
دية	-857
▁الساب	-858
حات	-859
لية	-860
▁الدولة	-861
▁الفل	-862
▁بر	-863
▁والن	-864
▁جن	-865
▁الرياض	-866
وائ	-867
▁بما	-868
ريب	-869
▁الشر	-870
دات	-871
امعة	-872
قتصاد	-873
▁الانت	-874
▁الكت	-875
▁سب	-876
▁لما	-877
▁مخ	-878
▁مما	-879
ميز	-880
▁عندما	-881
شت	-882
حية	-883
▁ولم	-884
قص	-885
ريقة	-886
قيقة	-887
واصل	-888
▁وقت	-889
▁يجب	-890
▁سيا	-891
راض	-892
طفال	-893
يك	-894
▁بج	-895
راك	-896
يام	-897
▁الشيخ	-898
▁ار	-899
سرائيل	-900
▁السلام	-901
▁الوقت	-902
▁الحكومة	-903
خذ	-904
▁الرس	-905
▁للح	-906
▁ترك	-907
▁الحل	-908
▁الثاني	-909
نين	-910
▁داخل	-911
▁العلم	-912
عادة	-913
ديات	-914
هدف	-915
جيل	-916
▁يقول	-917
▁مدينة	-918
▁تر	-919
▁المه	-920
ليات	-921
▁للع	-922
▁أمام	-923
▁الأن	-924
▁احت	-925
▁أد	-926
▁وإن	-927
▁واست	-928
▁تك	-929
▁البل	-930
▁سل	-931
اس	-932
▁فأ	-933
▁الشعب	-934
شار	-935
▁السعودية	-936
طع	-937
▁خاصة	-938
▁والس	-939
▁حين	-940
الف	-941
ساعد	-942
ويل	-943
كتب	-944
▁وهذا	-945
انيا	-946
نع	-947
خرج	-948
ظمة	-949
▁بالإ	-950
▁الخاصة	-951
▁طريق	-952
ساب	-953
▁الوا	-954
▁مختلف	-955
▁قائ	-956
▁التق	-957
▁ـ	-958
▁بص	-959
▁الملك	-960
تك	-961
جمع	-962
▁مبا	-963
▁حال	-964
رها	-965
يفة	-966
▁بسبب	-967
▁فع	-968
ؤول	-969
▁أبو	-970
عيد	-971
▁كثير	-972
وريا	-973
▁المم	-974
▁برنامج	-975
▁الأمري	-976
▁عنه	-977
يانة	-978
▁لهم	-979
وما	-980
روف	-981
▁؟	-982
▁الأولى	-983
▁سم	-984
▁الفت	-985
▁صح	-986
▁بالن	-987
▁المخ	-988
هور	-989
زيز	-990
▁ذات	-991
▁كبير	-992
▁الكثير	-993
▁الخط	-994
دمات	-995
▁عبدال	-996
▁أنها	-997
▁تخ	-998
دمة	-999
▁التص	-1000
غط	-1001
▁الأمن	-1002
اركة	-1003
▁سنة	-1004
▁كيف	-1005
▁ارت	-1006
▁واحد	-1007
▁أبي	-1008
ميم	-1009
▁السود	-1010
كرة	-1011
وجد	-1012
كتور	-1013
▁الأمر	-1014
▁اس	-1015
طلب	-1016
▁العق	-1017
حق	-1018
زا	-1019
اما	-1020
عضاء	-1021
▁ضد	-1022
اهدة	-1023
بير	-1024
تين	-1025
▁والد	-1026
شة	-1027
▁مك	-1028
▁مث	-1029
رير	-1030
▁والش	-1031
جب	-1032
رامج	-1033
▁قام	-1034
وء	-1035
▁الفلسط	-1036
جراء	-1037
▁الآن	-1038
اهرة	-1039
▁العربي	-1040
▁كنت	-1041
▁تو	-1042
ابع	-1043
▁الدين	-1044
▁البحر	-1045
▁مل	-1046
طق	-1047
صح	-1048
لكة	-1049
▁قص	-1050
لمة	-1051
جات	-1052
▁الخارج	-1053
▁وغير	-1054
▁عدم	-1055
▁النظام	-1056
▁وجه	-1057
▁ها	-1058
▁عمر	-1059
▁صف	-1060
▁بس	-1061
ونة	-1062
ربة	-1063
▁أث	-1064
واب	-1065
▁وعلى	-1066
▁وزير	-1067
▁اللا	-1068
▁يؤ	-1069
قم	-1070
▁لدي	-1071
▁العراق	-1072
ادي	-1073
بلغ	-1074
▁التى	-1075
وجه	-1076
▁أحمد	-1077
▁تاريخ	-1078
▁كبيرة	-1079
ورو	-1080
▁مر	-1081
▁هل	-1082
▁فال	-1083
▁نق	-1084
▁جديدة	-1085
مس	-1086
▁ري	-1087
▁مجموعة	-1088
▁الاحت	-1089
▁علم	-1090
هاز	-1091
▁منطقة	-1092
▁أجل	-1093
اقة	-1094
قاف	-1095
▁جز	-1096
لمين	-1097
▁جاء	-1098
ياه	-1099
حث	-1100
رية	-1101
▁أغ	-1102
▁دور	-1103
▁دائ	-1104
▁رسول	-1105
▁نج	-1106
▁مسلسل	-1107
حل	-1108
طيع	-1109
▁أهم	-1110
▁جه	-1111
▁الماضي	-1112
▁فقال	-1113
تهم	-1114
ملة	-1115
▁مكان	-1116
▁مم	-1117
▁نحو	-1118
▁يص	-1119
قه	-1120
▁كتاب	-1121
▁جديد	-1122
▁أفضل	-1123
ديو	-1124
جهزة	-1125
افظة	-1126
▁وزارة	-1127
▁عشر	-1128
▁ذكر	-1129
بدأ	-1130
عه	-1131
▁وجود	-1132
ونية	-1133
وسط	-1134
▁نفسه	-1135
وفر	-1136
▁مب	-1137
▁التعليم	-1138
▁للد	-1139
زمة	-1140
▁الشخص	-1141
▁العديد	-1142
عى	-1143
ويت	-1144
ارب	-1145
ائية	-1146
بيل	-1147
فيذ	-1148
ضم	-1149
▁رب	-1150
▁مرة	-1151
▁تعالى	-1152
همة	-1153
▁تب	-1154
▁عملية	-1155
ابل	-1156
جا	-1157
▁الطبي	-1158
▁استخدام	-1159
غل	-1160
▁الأح	-1161
▁الإنسان	-1162
▁الثال	-1163
▁نقل	-1164
▁الولا	-1165
▁فلا	-1166
كو	-1167
▁نها	-1168
▁موضوع	-1169
▁أق	-1170
▁الصف	-1171
▁شيء	-1172
سكر	-1173
▁الوطني	-1174
▁القانون	-1175
▁وضع	-1176
آن	-1177
مين	-1178
راسة	-1179
▁التس	-1180
صار	-1181
▁لان	-1182
▁نظام	-1183
ضح	-1184
فظ	-1185
املة	-1186
طلاق	-1187
الب	-1188
▁وتع	-1189
▁المنطقة	-1190
▁اسم	-1191
روض	-1192
▁المجتمع	-1193
▁يف	-1194
طلق	-1195
علن	-1196
▁اللي	-1197
عاون	-1198
وله	-1199
▁إذ	-1200
صرية	-1201
علق	-1202
▁مركز	-1203
▁تحميل	-1204
وبة	-1205
▁الأرض	-1206
▁الشركة	-1207
▁الأش	-1208
▁بالأ	-1209
▁بدا	-1210
▁والف	-1211
ابعة	-1212
▁نس	-1213
▁ضمن	-1214
ضية	-1215
▁الحياة	-1216
طات	-1217
طان	-1218
▁أل	-1219
▁رم	-1220
▁ألف	-1221
▁بلا	-1222
▁اليمن	-1223
▁مليون	-1224
▁للش	-1225
▁تنا	-1226
▁ومع	-1227
▁شر	-1228
▁أنا	-1229
سبوع	-1230
أت	-1231
▁مي	-1232
▁أهل	-1233
ائق	-1234
باراة	-1235
▁الحق	-1236
▁اح	-1237
غا	-1238
▁التد	-1239
▁نظ	-1240
عداد	-1241
صال	-1242
▁للإ	-1243
▁الار	-1244
▁مه	-1245
كمة	-1246
▁نص	-1247
▁التاريخ	-1248
لاة	-1249
بيق	-1250
حن	-1251
تل	-1252
▁انه	-1253
▁منهم	-1254
▁شهر	-1255
▁يحت	-1256
▁عالم	-1257
▁وط	-1258
▁تل	-1259
▁نف	-1260
جال	-1261
▁الجديدة	-1262
▁الدولي	-1263
▁والص	-1264
تمر	-1265
هه	-1266
▁الظ	-1267
ريط	-1268
ساس	-1269
سيط	-1270
▁الثلاث	-1271
▁كم	-1272
▁التف	-1273
▁الجديد	-1274
يع	-1275
اهد	-1276
▁منا	-1277
▁حالة	-1278
▁مف	-1279
▁الأمير	-1280
▁التط	-1281
▁يعت	-1282
لاثة	-1283
▁جي	-1284
نف	-1285
لاقة	-1286
ابت	-1287
اتب	-1288
▁وتح	-1289
▁عرض	-1290
▁رأ	-1291
ارا	-1292
▁تقدم	-1293
▁فريق	-1294
▁نوع	-1295
▁مجال	-1296
▁بالع	-1297
▁المنتدى	-1298
▁نشر	-1299
▁صيانة	-1300
▁الخاص	-1301
▁هم	-1302
داف	-1303
ارع	-1304
▁المصري	-1305
▁والق	-1306
الك	-1307
▁لقد	-1308
▁المدينة	-1309
▁العرب	-1310
▁إليه	-1311
▁الدكتور	-1312
اي	-1313
رحلة	-1314
▁كتب	-1315
ذهب	-1316
▁عق	-1317
▁يمكنك	-1318
▁القد	-1319
▁مشاهدة	-1320
ديل	-1321
▁النبي	-1322
▁باست	-1323
▁واحدة	-1324
▁والخ	-1325
علومات	-1326
▁أمر	-1327
▁الاتحاد	-1328
الد	-1329
▁رد	-1330
▁لكل	-1331
▁أج	-1332
▁مستوى	-1333
▁التش	-1334
ـــ	-1335
ولوج	-1336
▁إنه	-1337
قق	-1338
خول	-1339
ليا	-1340
هتم	-1341
وبر	-1342
▁العد	-1343
يمة	-1344
ثنين	-1345
وش	-1346
▁عد	-1347
زال	-1348
نيا	-1349
جهة	-1350
▁حك	-1351
فاء	-1352
▁لش	-1353
زام	-1354
واع	-1355
شاء	-1356
▁متر	-1357
▁وبعد	-1358
▁السياسية	-1359
ومية	-1360
▁والذي	-1361
اث	-1362
▁مدير	-1363
برا	-1364
غيير	-1365
▁لدى	-1366
▁العل	-1367
▁طلب	-1368
اصيل	-1369
راب	-1370
▁الموقع	-1371
▁فض	-1372
هن	-1373
▁سنوات	-1374
ائف	-1375
سيق	-1376
▁التأ	-1377
داث	-1378
▁لنا	-1379
▁الإم	-1380
▁محا	-1381
سام	-1382
▁سوف	-1383
انه	-1384
▁الترك	-1385
▁اع	-1386
▁خص	-1387
كار	-1388
▁حم	-1389
▁الاخ	-1390
عودي	-1391
ورات	-1392
▁يأ	-1393
وتر	-1394
قاط	-1395
روس	-1396
▁إدارة	-1397
▁بكل	-1398
ضمن	-1399
ماية	-1400
اعت	-1401
▁سا	-1402
احب	-1403
▁نش	-1404
▁الشرق	-1405
▁الاقتصاد	-1406
▁وعد	-1407
ولات	-1408
▁المق	-1409
▁الحد	-1410
ائج	-1411
انت	-1412
يلي	-1413
▁الشع	-1414
لكتر	-1415
اجة	-1416
▁رائ	-1417
باح	-1418
ورا	-1419
▁لق	-1420
▁وث	-1421
ومي	-1422
▁الرح	-1423
ويات	-1424
واج	-1425
▁فهو	-1426
▁أه	-1427
▁الآخر	-1428
خصص	-1429
اتف	-1430
▁الثانية	-1431
▁عدة	-1432
تنا	-1433
هرب	-1434
▁الأد	-1435
▁دولة	-1436
▁دولار	-1437
▁يقوم	-1438
▁أكبر	-1439
▁حدث	-1440
حيح	-1441
▁الولايات	-1442
▁روا	-1443
تيجة	-1444
نتاج	-1445
▁لذلك	-1446
▁السوري	-1447
▁الجيش	-1448
كلة	-1449
▁حسب	-1450
لاقات	-1451
▁النف	-1452
▁نحن	-1453
سسة	-1454
بحث	-1455
▁الفرن	-1456
▁الوطنية	-1457
يار	-1458
▁الحصول	-1459
▁وأضاف	-1460
▁عب	-1461
صب	-1462
▁لمن	-1463
▁خارج	-1464
▁سوريا	-1465
▁درج	-1466
▁زوج	-1467
▁السن	-1468
▁العاب	-1469
▁والج	-1470
▁مض	-1471
▁إب	-1472
▁وليس	-1473
▁الإسلامية	-1474
▁للن	-1475
خة	-1476
▁خدمة	-1477
▁يخ	-1478
عاب	-1479
▁يعني	-1480
▁قدم	-1481
ــــــــ	-1482
دت	-1483
▁ويت	-1484
▁الدولية	-1485
▁الإعلام	-1486
ماع	-1487
▁اللج	-1488
▁الشه	-1489
▁تقوم	-1490
▁المركز	-1491
▁نوف	-1492
ظة	-1493
▁مرت	-1494
▁الأربع	-1495
▁اش	-1496
▁أت	-1497
تيار	-1498
خابات	-1499
درسة	-1500
▁برامج	-1501
▁السيد	-1502
▁مشروع	-1503
▁اج	-1504
▁لكم	-1505
▁المجلس	-1506
طية	-1507
اعات	-1508
▁معل	-1509
▁جل	-1510
▁البلاد	-1511
ناة	-1512
صلاح	-1513
وين	-1514
قرا	-1515
سسات	-1516
امي	-1517
قرار	-1518
▁للج	-1519
وضع	-1520
▁العالمية	-1521
▁الخارجية	-1522
حاب	-1523
▁عاما	-1524
خاص	-1525
▁يكن	-1526
كات	-1527
دق	-1528
▁الأع	-1529
▁الحلقة	-1530
ضور	-1531
▁الداخل	-1532
▁الموسم	-1533
▁فن	-1534
▁القرآن	-1535
▁تجاه	-1536
علان	-1537
جلي	-1538
باط	-1539
نب	-1540
▁الاعت	-1541
▁إسرائيل	-1542
▁البحث	-1543
▁المزيد	-1544
هود	-1545
اهر	-1546
▁خاص	-1547
▁المملكة	-1548
▁البن	-1549
▁الفريق	-1550
▁الموضوع	-1551
▁عض	-1552
زية	-1553
▁اف	-1554
▁المف	-1555
▁وكل	-1556
▁عنها	-1557
راءة	-1558
طاء	-1559
هب	-1560
▁كافة	-1561
اصمة	-1562
▁السنة	-1563
لمان	-1564
▁باب	-1565
▁رقم	-1566
اكل	-1567
▁رح	-1568
لائ	-1569
▁وصل	-1570
▁للبيع	-1571
ميس	-1572
ذر	-1573
سكرية	-1574
أل	-1575
بيب	-1576
راع	-1577
▁الجمعة	-1578
▁السابق	-1579
▁الاس	-1580
▁عليهم	-1581
▁الأمريكية	-1582
▁الحديث	-1583
يرات	-1584
▁توا	-1585
▁سكس	-1586
▁جانب	-1587
مبر	-1588
▁محت	-1589
ريا	-1590
جاز	-1591
▁الأخيرة	-1592
▁المسلمين	-1593
▁الفر	-1594
▁أمس	-1595
لمات	-1596
▁حسن	-1597
▁حيات	-1598
▁تحقيق	-1599
▁وآ	-1600
▁نع	-1601
جاج	-1602
▁بوا	-1603
▁قل	-1604
▁بناء	-1605
قيم	-1606
▁الكتاب	-1607
▁الشباب	-1608
▁الأخرى	-1609
راهيم	-1610
▁دع	-1611
▁والب	-1612
▁لس	-1613
▁المعلومات	-1614
ؤلاء	-1615
▁تقديم	-1616
▁اللغة	-1617
عبة	-1618
ئب	-1619
▁والث	-1620
▁كث	-1621
▁السياسي	-1622
▁طب	-1623
▁مساء	-1624
▁أيام	-1625
ستر	-1626
سلحة	-1627
قتل	-1628
▁اللب	-1629
شن	-1630
▁لد	-1631
صور	-1632
▁دين	-1633
▁المحت	-1634
وبية	-1635
▁لله	-1636
▁اجتما	-1637
▁مسا	-1638
▁بيت	-1639
▁الهي	-1640
▁تؤ	-1641
ريح	-1642
▁الحرب	-1643
▁بالق	-1644
ئات	-1645
▁والك	-1646
واد	-1647
▁بينما	-1648
غيرة	-1649
▁نوفمبر	-1650
اا	-1651
▁الأف	-1652
▁سواء	-1653
هورية	-1654
▁حديث	-1655
▁بدون	-1656
▁المواطن	-1657
▁وض	-1658
قافة	-1659
▁ساب	-1660
▁الفلسطيني	-1661
▁خل	-1662
سباب	-1663
▁بالإضافة	-1664
▁قدر	-1665
▁الإرها	-1666
▁بالح	-1667
▁ينت	-1668
▁أعمال	-1669
▁وكانت	-1670
ضان	-1671
▁حزب	-1672
▁الشم	-1673
▁المرأة	-1674
اتها	-1675
▁لبنان	-1676
▁ينا	-1677
▁وكذلك	-1678
كال	-1679
▁الوزراء	-1680
▁باسم	-1681
▁النص	-1682
نتر	-1683
▁معا	-1684
▁الفي	-1685
▁الحي	-1686
▁ثلاث	-1687
▁الكريم	-1688
▁وين	-1689
مكن	-1690
والي	-1691
▁الأربعاء	-1692
▁الثلاثاء	-1693
ثم	-1694
▁التواصل	-1695
هار	-1696
▁للس	-1697
ذب	-1698
روج	-1699
▁كذلك	-1700
؟؟	-1701
▁اد	-1702
▁يعرف	-1703
▁وبين	-1704
▁سر	-1705
▁الجما	-1706
زن	-1707
▁رؤ	-1708
ورد	-1709
▁بخ	-1710
وفير	-1711
▁الدم	-1712
ندق	-1713
▁للق	-1714
▁بالنسبة	-1715
▁دم	-1716
▁لتح	-1717
شرين	-1718
▁المالية	-1719
▁زي	-1720
▁قطاع	-1721
▁إي	-1722
جاه	-1723
هاب	-1724
▁وتن	-1725
▁المب	-1726
▁السودان	-1727
▁ني	-1728
يري	-1729
راتيج	-1730
غب	-1731
لين	-1732
▁المث	-1733
▁وسط	-1734
▁اكثر	-1735
هات	-1736
ناعة	-1737
▁الحر	-1738
▁حقوق	-1739
بكة	-1740
▁يسم	-1741
▁عاد	-1742
▁الال	-1743
▁نتيجة	-1744
▁أثناء	-1745
▁التر	-1746
▁الاسلام	-1747
ائي	-1748
▁قانون	-1749
داع	-1750
عام	-1751
▁المصرية	-1752
▁المشت	-1753
بقى	-1754
▁السعودي	-1755
▁وجد	-1756
▁اللبن	-1757
▁الرجل	-1758
▁ير	-1759
▁بار	-1760
▁البر	-1761
▁فا	-1762
▁فلسط	-1763
▁تنظيف	-1764
▁عليك	-1765
ضيع	-1766
بدو	-1767
▁الخلي	-1768
▁الشعر	-1769
وغ	-1770
▁البيت	-1771
▁بغ	-1772
طا	-1773
▁رغم	-1774
عاد	-1775
▁صاحب	-1776
▁الثالث	-1777
▁جامعة	-1778
تح	-1779
كبر	-1780
▁مز	-1781
▁الوطن	-1782
▁الشركات	-1783
▁مغ	-1784
▁الاب	-1785
جان	-1786
▁فه	-1787
▁اغ	-1788
وجود	-1789
▁هد	-1790
▁يعمل	-1791
▁شك	-1792
ديمقرا	-1793
خي	-1794
▁المال	-1795
قامة	-1796
▁كثيرا	-1797
▁إد	-1798
▁لص	-1799
▁الذى	-1800
ذة	-1801
▁الصور	-1802
▁السف	-1803
▁المل	-1804
▁الدرا	-1805
هاد	-1806
▁واس	-1807
▁بلغ	-1808
▁عقد	-1809
ونه	-1810
تمد	-1811
▁دار	-1812
حدى	-1813
▁الطب	-1814
جار	-1815
▁معه	-1816
▁سيد	-1817
▁لجنة	-1818
▁ثلاثة	-1819
سمية	-1820
▁ليست	-1821
▁جني	-1822
▁بنا	-1823
شق	-1824
▁الإلكتر	-1825
عين	-1826
▁فترة	-1827
▁نهاية	-1828
وفي	-1829
▁الفترة	-1830
▁القدم	-1831
▁اذا	-1832
▁لأنه	-1833
كيل	-1834
▁مط	-1835
حب	-1836
اله	-1837
عرض	-1838
▁تعت	-1839
▁ماي	-1840
▁والاست	-1841
شرات	-1842
ائد	-1843
▁فيلم	-1844
وو	-1845
بيوتر	-1846
▁كال	-1847
▁بداية	-1848
▁رأس	-1849
سه	-1850
باء	-1851
▁خدمات	-1852
▁أنت	-1853
صابة	-1854
ثار	-1855
▁يوجد	-1856
خلص	-1857
▁لهذا	-1858
▁جما	-1859
وضح	-1860
يط	-1861
▁الفن	-1862
يجار	-1863
▁بف	-1864
ئاسة	-1865
▁دائما	-1866
▁الاجتماعي	-1867
ليف	-1868
وتي	-1869
▁ظل	-1870
▁الأرد	-1871
▁الجل	-1872
▁حا	-1873
▁الخميس	-1874
▁كامل	-1875
▁قب	-1876
ستاذ	-1877
ريات	-1878
▁بالك	-1879
▁هؤلاء	-1880
▁الكويت	-1881
▁الأعمال	-1882
▁البط	-1883
وسي	-1884
تا	-1885
▁مواقع	-1886
▁يك	-1887
▁للف	-1888
▁القاد	-1889
▁بب	-1890
المي	-1891
▁الخدمات	-1892
ناصر	-1893
▁الحم	-1894
▁بان	-1895
جراءات	-1896
▁الخام	-1897
▁منتديات	-1898
▁البرنامج	-1899
▁وغ	-1900
▁القص	-1901
زين	-1902
▁طريقة	-1903
▁وتق	-1904
▁قتل	-1905
ضايا	-1906
طالب	-1907
▁المسا	-1908
حص	-1909
اعر	-1910
ؤال	-1911
▁جد	-1912
▁مباشرة	-1913
▁وحد	-1914
قدر	-1915
صبح	-1916
▁الاول	-1917
▁إم	-1918
ابه	-1919
غيل	-1920
▁مساعدة	-1921
قتصادي	-1922
▁طبي	-1923
▁آل	-1924
▁النها	-1925
▁شع	-1926
▁موس	-1927
ماد	-1928
ابية	-1929
▁محم	-1930
▁ملف	-1931
▁قوات	-1932
▁قرار	-1933
▁المسي	-1934
عمل	-1935
▁تنظيم	-1936
جرة	-1937
▁أرض	-1938
كتوبر	-1939
مرار	-1940
▁وظ	-1941
▁رمضان	-1942
عيش	-1943
▁الأل	-1944
▁خلف	-1945
▁كانوا	-1946
▁صورة	-1947
اريع	-1948
افحة	-1949
▁فعل	-1950
▁بالف	-1951
ؤون	-1952
▁عز	-1953
سرائيلي	-1954
▁أمن	-1955
ساسية	-1956
جموع	-1957
▁تعمل	-1958
سانية	-1959
كام	-1960
▁أر	-1961
▁يل	-1962
خلي	-1963
▁الداخلية	-1964
▁يعد	-1965
▁حساب	-1966
▁الأه	-1967
▁وست	-1968
يق	-1969
لاك	-1970
ذك	-1971
▁تغ	-1972
قام	-1973
اك	-1974
▁تعرض	-1975
▁مختلفة	-1976
فتح	-1977
▁بهذا	-1978
خصصة	-1979
طلع	-1980
فيات	-1981
▁اقت	-1982
▁جعل	-1983
▁وتم	-1984
ونا	-1985
▁حركة	-1986
▁النساء	-1987
▁الدفاع	-1988
▁سير	-1989
▁اللجنة	-1990
▁فوق	-1991
▁القاهرة	-1992
▁مباشر	-1993
▁إضافة	-1994
▁الأطفال	-1995
يي	-1996
دائ	-1997
كب	-1998
ونس	-1999
فين	-2000
▁لمدة	-2001
▁رجل	-2002
▁وير	-2003
▁بنفس	-2004
▁شكل	-2005
▁فتح	-2006
شد	-2007
▁اون	-2008
تع	-2009
▁المز	-2010
▁الرب	-2011
اتي	-2012
جوم	-2013
▁كي	-2014
▁وهم	-2015
▁بني	-2016
▁البشر	-2017
▁رضي	-2018
يرية	-2019
▁بيان	-2020
▁إس	-2021
▁نسبة	-2022
▁السبت	-2023
▁دعم	-2024
▁كن	-2025
▁أكد	-2026
رجمة	-2027
عاية	-2028
منت	-2029
▁شركات	-2030
▁الرئيسية	-2031
ريك	-2032
▁ظهر	-2033
▁عالية	-2034
رفع	-2035
باس	-2036
▁المياه	-2037
▁بذلك	-2038
▁يريد	-2039
▁المسؤول	-2040
▁وسي	-2041
ابي	-2042
كنولوج	-2043
▁المختلف	-2044
امين	-2045
▁والتع	-2046
▁الساعة	-2047
دان	-2048
علنت	-2049
▁درجة	-2050
▁تعد	-2051
▁يتعلق	-2052
▁الجميع	-2053
▁بات	-2054
▁المط	-2055
▁كلمة	-2056
نترنت	-2057
▁زيادة	-2058
▁جزء	-2059
▁بأنه	-2060
▁صحيفة	-2061
ادات	-2062
▁حكم	-2063
فاظ	-2064
▁وتت	-2065
دع	-2066
▁روس	-2067
▁وبالت	-2068
▁يعتبر	-2069
▁المعار	-2070
▁الحكم	-2071
▁المنزل	-2072
▁بث	-2073
ريبا	-2074
▁؛	-2075
ناك	-2076
▁السورية	-2077
قى	-2078
▁القطاع	-2079
راجع	-2080
▁حر	-2081
▁والر	-2082
▁تتم	-2083
▁مكت	-2084
▁لف	-2085
▁مقابل	-2086
▁الحب	-2087
▁أخبار	-2088
▁المكان	-2089
▁افضل	-2090
▁لاست	-2091
ديا	-2092
▁إخ	-2093
▁بالس	-2094
بيا	-2095
▁كام	-2096
برز	-2097
▁وتش	-2098
▁تطبيق	-2099
▁إل	-2100
▁حب	-2101
▁جهاز	-2102
▁محام	-2103
وبي	-2104
ريبة	-2105
ائلة	-2106
▁مرا	-2107
▁شه	-2108
▁التربية	-2109
▁المك	-2110
▁الإمارات	-2111
▁السلطة	-2112
ستان	-2113
حه	-2114
ريس	-2115
ادية	-2116
▁فإ	-2117
▁تنت	-2118
▁وغيرها	-2119
▁الأص	-2120
دل	-2121
روب	-2122
▁الاجتماعية	-2123
ويلة	-2124
كذا	-2125
ميزة	-2126
سكري	-2127
يره	-2128
▁إليها	-2129
▁المقد	-2130
▁اث	-2131
▁الزي	-2132
▁البعض	-2133
▁معلومات	-2134
▁بالش	-2135
▁مسؤول	-2136
ريع	-2137
▁الأحد	-2138
▁الجام	-2139
قية	-2140
راضي	-2141
▁سبيل	-2142
▁وات	-2143
ناه	-2144
▁شعب	-2145
بارك	-2146
▁المختلفة	-2147
هتمام	-2148
ثمار	-2149
▁لعبة	-2150
▁صوت	-2151
▁ريال	-2152
▁الكبير	-2153
▁يقدم	-2154
▁تنفيذ	-2155
حين	-2156
▁يب	-2157
برى	-2158
▁القدس	-2159
ريل	-2160
▁لاين	-2161
▁الدي	-2162
ديق	-2163
▁الإخ	-2164
▁السيارات	-2165
مارسة	-2166
قليم	-2167
▁وبال	-2168
راقي	-2169
▁رج	-2170
شفى	-2171
▁فرن	-2172
▁تطوير	-2173
▁القوات	-2174
قطع	-2175
▁ضر	-2176
▁كون	-2177
▁بمن	-2178
طلا	-2179
فه	-2180
وصا	-2181
▁فان	-2182
▁النار	-2183
▁حص	-2184
لبية	-2185
▁السوق	-2186
▁الثقاف	-2187
حمر	-2188
▁جنوب	-2189
▁اخبار	-2190
وام	-2191
▁مترجم	-2192
▁النظر	-2193
▁الصورة	-2194
▁الصحة	-2195
▁تمت	-2196
▁المدني	-2197
▁الشرطة	-2198
حو	-2199
طرة	-2200
▁غزة	-2201
▁المغرب	-2202
▁تناول	-2203
▁الهند	-2204
▁غرف	-2205
▁اللاعب	-2206
ريمة	-2207
▁تصميم	-2208
حيث	-2209
▁والله	-2210
▁إست	-2211
▁الهيئة	-2212
▁العن	-2213
▁الأمريكي	-2214
▁الإمام	-2215
▁مقال	-2216
وسف	-2217
▁سعر	-2218
▁وفق	-2219
كيد	-2220
▁الحركة	-2221
رين	-2222
▁ويمكن	-2223
▁الوصول	-2224
▁للب	-2225
▁القب	-2226
▁وصف	-2227
▁الواقع	-2228
▁الفلسطينية	-2229
ائدة	-2230
▁حصل	-2231
▁الأمم	-2232
ياد	-2233
▁الطريق	-2234
▁اللهم	-2235
▁أمير	-2236
روط	-2237
▁عبدالله	-2238
ادرة	-2239
▁ملك	-2240
أي	-2241
عش	-2242
▁مباراة	-2243
▁الجامعة	-2244
▁أمري	-2245
قرأ	-2246
▁فهي	-2247
▁وأكد	-2248
يمان	-2249
▁هيئة	-2250
علم	-2251
▁قالت	-2252
▁عمليات	-2253
▁الصنا	-2254
ديثة	-2255
▁تماما	-2256
هادة	-2257
▁إش	-2258
ريعة	-2259
▁تركيا	-2260
▁المناطق	-2261
▁ساعة	-2262
وخ	-2263
▁الخبر	-2264
هج	-2265
▁كثيرة	-2266
داول	-2267
▁اكت	-2268
▁الإير	-2269
طور	-2270
دينا	-2271
وها	-2272
▁الماء	-2273
▁الاقتصادية	-2274
▁الكم	-2275
▁مصدر	-2276
انى	-2277
▁محد	-2278
▁السر	-2279
حتى	-2280
▁القدي	-2281
▁وسائل	-2282
ذن	-2283
صدار	-2284
بيه	-2285
▁العاصمة	-2286
▁دخل	-2287
▁إنها	-2288
▁وإذا	-2289
▁أكتوبر	-2290
▁إيران	-2291
وانين	-2292
▁الشهر	-2293
▁التعاون	-2294
▁تز	-2295
وبات	-2296
▁أصحاب	-2297
▁المؤمن	-2298
▁الصلاة	-2299
الا	-2300
افي	-2301
فيف	-2302
▁قناة	-2303
سد	-2304
▁الجزائر	-2305
▁العملية	-2306
▁ولو	-2307
▁يوني	-2308
بعة	-2309
▁ومت	-2310
▁المرت	-2311
▁معظم	-2312
▁عص	-2313
▁إطار	-2314
▁إح	-2315
▁المطل	-2316
▁رفع	-2317
▁فلسطين	-2318
احة	-2319
▁يغ	-2320
▁تعرف	-2321
▁العالمي	-2322
▁النفس	-2323
▁المقا	-2324
هير	-2325
▁بنت	-2326
▁مليار	-2327
▁الحالي	-2328
▁الحا	-2329
▁العسكرية	-2330
يون	-2331
▁محافظة	-2332
▁المرحلة	-2333
وجيه	-2334
فية	-2335
▁للاست	-2336
▁أقل	-2337
▁الحزب	-2338
▁نز	-2339
▁انا	-2340
▁فهم	-2341
ريدة	-2342
▁إبراهيم	-2343
▁النق	-2344
▁الإدارة	-2345
▁المقبل	-2346
طبخ	-2347
▁النس	-2348
▁والط	-2349
جاح	-2350
وحة	-2351
▁شمال	-2352
ديه	-2353
▁المرك	-2354
ربعة	-2355
▁وفقا	-2356
▁عش	-2357
▁بشأن	-2358
ئلة	-2359
فاف	-2360
ليه	-2361
▁قائمة	-2362
▁المشروع	-2363
سيا	-2364
▁ايضا	-2365
▁قلب	-2366
▁أشهر	-2367
▁الجسم	-2368
ويا	-2369
▁الدع	-2370
▁المجال	-2371
▁الغذا	-2372
▁أعلن	-2373
نائ	-2374
▁الديمقرا	-2375
▁الاثنين	-2376
ريض	-2377
▁عرف	-2378
▁نتائج	-2379
▁صالح	-2380
▁نقطة	-2381
سون	-2382
▁التب	-2383
▁مقا	-2384
رع	-2385
▁القائ	-2386
▁أصبح	-2387
ئين	-2388
▁الإد	-2389
▁الطفل	-2390
▁القرار	-2391
▁مظ	-2392
▁حاليا	-2393
▁الأب	-2394
▁وعند	-2395
▁وقالت	-2396
▁الأسبوع	-2397
ذج	-2398
كين	-2399
▁العمر	-2400
ائع	-2401
▁ارتفاع	-2402
▁خي	-2403
▁أنواع	-2404
اتهم	-2405
▁روسيا	-2406
ره	-2407
▁ألم	-2408
▁فمن	-2409
▁العلاقات	-2410
ترنت	-2411
▁بدأ	-2412
▁التفاصيل	-2413
▁جهة	-2414
▁الساد	-2415
▁بو	-2416
ينما	-2417
ارق	-2418
ريقيا	-2419
▁القرن	-2420
▁قوة	-2421
▁فك	-2422
▁بير	-2423
▁وعن	-2424
▁القسم	-2425
زيل	-2426
يته	-2427
▁برج	-2428
▁واق	-2429
▁علينا	-2430
صالات	-2431
مع	-2432
▁الوسيط	-2433
▁مصادر	-2434
فسير	-2435
وجودة	-2436
لامة	-2437
▁يصل	-2438
▁يمن	-2439
راث	-2440
▁المواد	-2441
▁قط	-2442
▁الروا	-2443
وروبا	-2444
▁تعلم	-2445
▁الرائ	-2446
جع	-2447
اره	-2448
▁بهذه	-2449
▁الأمور	-2450
تمبر	-2451
سيس	-2452
▁الكهرب	-2453
▁صد	-2454
▁بالج	-2455
▁حياة	-2456
▁قوله	-2457
شل	-2458
ضى	-2459
▁والمت	-2460
▁خالد	-2461
▁الانتخابات	-2462
▁رفض	-2463
▁تغيير	-2464
وره	-2465
خرا	-2466
▁مارس	-2467
▁وحتى	-2468
▁أعلنت	-2469
▁البريط	-2470
▁ته	-2471
▁الطعام	-2472
▁سيارات	-2473
لابس	-2474
راح	-2475
ويس	-2476
▁المادة	-2477
▁طالب	-2478
▁لر	-2479
ثمان	-2480
▁المحلية	-2481
ناق	-2482
شاركة	-2483
▁الزرا	-2484
▁مناط	-2485
▁لهذه	-2486
▁بدأت	-2487
ذية	-2488
ضيف	-2489
▁شهد	-2490
▁ذا	-2491
▁الأق	-2492
فيه	-2493
▁خير	-2494
▁فإنه	-2495
▁سيكون	-2496
▁الجهاز	-2497
▁سبتمبر	-2498
راكز	-2499
▁دفع	-2500
▁البرامج	-2501
▁شيئا	-2502
▁درا	-2503
▁الشخصية	-2504
▁الجمهورية	-2505
▁كلام	-2506
▁سليم	-2507
ثلة	-2508
ادث	-2509
رامب	-2510
فى	-2511
ديدا	-2512
▁حرب	-2513
▁الثورة	-2514
▁عين	-2515
▁بحسب	-2516
▁مناطق	-2517
▁يونيو	-2518
فيد	-2519
▁سف	-2520
▁نظر	-2521
قبال	-2522
وليو	-2523
▁الطاقة	-2524
▁الإس	-2525
جاب	-2526
▁قضية	-2527
طراف	-2528
▁الوضع	-2529
▁الاحتلال	-2530
هة	-2531
قوق	-2532
▁مجاني	-2533
▁امر	-2534
▁خلق	-2535
نه	-2536
نات	-2537
▁رجال	-2538
▁الإسلامي	-2539
غاية	-2540
▁أنهم	-2541
▁وهذه	-2542
▁لاب	-2543
▁العلاج	-2544
▁جمع	-2545
▁السب	-2546
▁إعادة	-2547
▁ضع	-2548
سلة	-2549
واقف	-2550
اليات	-2551
▁الفق	-2552
▁المواقع	-2553
يفا	-2554
قوم	-2555
▁المنتخب	-2556
▁قول	-2557
▁تحدث	-2558
▁كأس	-2559
كنولوجيا	-2560
اريات	-2561
▁حجم	-2562
ليب	-2563
مسة	-2564
▁اص	-2565
▁إحدى	-2566
▁الرق	-2567
▁تعتبر	-2568
▁لكي	-2569
منة	-2570
▁أهمية	-2571
▁اتفاق	-2572
▁اشت	-2573
▁نادي	-2574
▁كشف	-2575
راتيجية	-2576
▁رحم	-2577
▁أعضاء	-2578
حاء	-2579
▁خلي	-2580
▁موقف	-2581
▁التعامل	-2582
▁صباح	-2583
▁متن	-2584
ائزة	-2585
▁افت	-2586
▁نفسها	-2587
سى	-2588
كتر	-2589
▁الاخت	-2590
▁لتن	-2591
نائية	-2592
ارنة	-2593
▁قصص	-2594
▁ربما	-2595
▁يستطيع	-2596
▁المواطنين	-2597
صاص	-2598
▁ملا	-2599
▁أسعار	-2600
▁تريد	-2601
▁الدوري	-2602
▁الصفحة	-2603
▁المؤتمر	-2604
▁المباراة	-2605
▁بنسبة	-2606
▁التجارية	-2607
▁قامت	-2608
ضب	-2609
▁قطر	-2610
▁مار	-2611
روح	-2612
▁ورد	-2613
طوير	-2614
▁ألا	-2615
▁قيمة	-2616
▁مدى	-2617
▁الطرق	-2618
▁العراقي	-2619
▁عمان	-2620
▁الماضية	-2621
▁لط	-2622
▁مؤسسة	-2623
▁العض	-2624
▁يجعل	-2625
▁اختيار	-2626
▁فيديو	-2627
▁المشاركة	-2628
▁يناير	-2629
حاول	-2630
▁بالخ	-2631
▁ترامب	-2632
ماس	-2633
▁رسالة	-2634
▁الفض	-2635
▁التخ	-2636
▁امت	-2637
▁خب	-2638
سجيل	-2639
▁الزوج	-2640
▁والغ	-2641
زيع	-2642
اربة	-2643
▁بحث	-2644
عون	-2645
ادت	-2646
▁قلي	-2647
▁زيارة	-2648
▁طويلة	-2649
▁الثالثة	-2650
ائه	-2651
▁الدست	-2652
▁سعيد	-2653
مم	-2654
▁وعدم	-2655
▁حكومة	-2656
▁سوق	-2657
اية	-2658
▁الجانب	-2659
▁يأتي	-2660
▁تصل	-2661
بين	-2662
▁جمي	-2663
▁المحا	-2664
▁النب	-2665
▁تجاهله	-2666
▁الإسرائيلي	-2667
خرة	-2668
ورك	-2669
▁وبالتالي	-2670
شطة	-2671
كانية	-2672
افية	-2673
▁احد	-2674
▁تقول	-2675
ولية	-2676
امن	-2677
▁تمكن	-2678
ائرة	-2679
▁الفنان	-2680
▁الحدود	-2681
▁ابت	-2682
▁الدنيا	-2683
▁وكيل	-2684
▁الخدمة	-2685
▁الخليج	-2686
▁الطلاب	-2687
بيت	-2688
فاوض	-2689
▁المصدر	-2690
▁خرج	-2691
▁شبكة	-2692
▁السلطات	-2693
▁غرفة	-2694
جليزية	-2695
▁الملف	-2696
▁الكاتب	-2697
ندوق	-2698
▁محمود	-2699
▁جنيه	-2700
▁بحيث	-2701
فات	-2702
كور	-2703
▁بهدف	-2704
▁لقاء	-2705
اطر	-2706
▁المخت	-2707
▁وتأ	-2708
▁الرسول	-2709
▁حس	-2710
ئيسي	-2711
▁الأغ	-2712
▁لدينا	-2713
ساسي	-2714
▁واض	-2715
هام	-2716
▁مفت	-2717
▁بالد	-2718
▁السابقة	-2719
▁الشعبية	-2720
▁بنات	-2721
▁والمع	-2722
نج	-2723
▁تجد	-2724
▁المساعدة	-2725
▁إت	-2726
▁الدور	-2727
امية	-2728
حرير	-2729
سطة	-2730
رفض	-2731
قلت	-2732
▁يحدث	-2733
▁اض	-2734
▁طال	-2735
▁كس	-2736
▁فما	-2737
▁حوالي	-2738
▁علاقة	-2739
ياب	-2740
▁الكمبيوتر	-2741
وروبي	-2742
▁تقرير	-2743
▁قصة	-2744
▁السم	-2745
▁المعت	-2746
▁معت	-2747
▁فإذا	-2748
▁الخب	-2749
▁وكالة	-2750
ذين	-2751
▁حمل	-2752
▁مقد	-2753
ريحات	-2754
▁الإست	-2755
▁النفط	-2756
▁اللقاء	-2757
▁يوسف	-2758
امت	-2759
صلة	-2760
▁أخذ	-2761
▁أعلى	-2762
ظار	-2763
▁الكب	-2764
▁علاج	-2765
▁بمع	-2766
▁سبب	-2767
▁دبي	-2768
هولة	-2769
▁مؤك	-2770
▁الألم	-2771
▁الفني	-2772
▁نعم	-2773
▁حسين	-2774
▁المرض	-2775
▁سوى	-2776
▁نصف	-2777
▁بالط	-2778
شا	-2779
▁صل	-2780
واعد	-2781
▁بيع	-2782
▁شباب	-2783
▁تحديد	-2784
▁وصول	-2785
رسال	-2786
▁بالل	-2787
حرك	-2788
▁المستقبل	-2789
▁المعرفة	-2790
ساد	-2791
ويتر	-2792
▁عضو	-2793
▁الأمة	-2794
تيب	-2795
ليق	-2796
▁تكن	-2797
▁نيك	-2798
▁ممن	-2799
▁مرض	-2800
▁مات	-2801
▁الخص	-2802
تهاء	-2803
وارد	-2804
▁توق	-2805
▁صحيح	-2806
ورت	-2807
رفين	-2808
بيض	-2809
▁الدائ	-2810
▁سورية	-2811
كير	-2812
▁تسم	-2813
▁يوما	-2814
▁قطع	-2815
▁ولد	-2816
▁العب	-2817
▁رياض	-2818
ياس	-2819
▁سبح	-2820
▁البد	-2821
▁الباب	-2822
▁مثلا	-2823
زع	-2824
▁تحمل	-2825
▁تسجيل	-2826
ولد	-2827
▁الصحية	-2828
▁الأز	-2829
▁منظمة	-2830
بطة	-2831
▁أولا	-2832
رجع	-2833
ظيفة	-2834
▁در	-2835
▁الاح	-2836
ارف	-2837
▁روح	-2838
قف	-2839
عزيز	-2840
انيين	-2841
▁انها	-2842
سلوب	-2843
▁يوليو	-2844
زاب	-2845
▁والتن	-2846
طيب	-2847
بادل	-2848
▁مكافحة	-2849
▁الري	-2850
شاف	-2851
▁يعلم	-2852
▁تحتاج	-2853
▁دراسة	-2854
▁الأخير	-2855
▁الفرنسية	-2856
راحة	-2857
▁حمام	-2858
يان	-2859
▁مطل	-2860
▁للخ	-2861
▁توفير	-2862
▁الشريف	-2863
خاذ	-2864
▁سجل	-2865
▁العليا	-2866
▁الدراسة	-2867
▁العلمية	-2868
اند	-2869
ارير	-2870
▁صغيرة	-2871
▁مرحلة	-2872
▁بعي	-2873
▁عامة	-2874
صاب	-2875
▁تعليم	-2876
▁الجزء	-2877
▁مشيرا	-2878
▁يذكر	-2879
▁اخر	-2880
▁لماذا	-2881
▁لذا	-2882
الغ	-2883
▁القلب	-2884
▁عليكم	-2885
▁لغ	-2886
▁داعش	-2887
▁يبدو	-2888
خدمة	-2889
▁عبارة	-2890
▁وظائف	-2891
▁ساعات	-2892
وصل	-2893
▁بقي	-2894
راقبة	-2895
ناول	-2896
▁العزيز	-2897
طفى	-2898
▁خبر	-2899
▁مشت	-2900
شاط	-2901
قرر	-2902
يلم	-2903
واف	-2904
▁جميعا	-2905
▁باستخدام	-2906
▁يزيد	-2907
▁شعر	-2908
▁الغربية	-2909
▁للط	-2910
جنبية	-2911
▁الاتفاق	-2912
لفزي	-2913
▁اول	-2914
▁لاعب	-2915
ندس	-2916
رائم	-2917
هههه	-2918
▁الفيديو	-2919
▁سين	-2920
هرجان	-2921
▁بهم	-2922
▁الوح	-2923
يدة	-2924
احث	-2925
▁صلاح	-2926
▁بطولة	-2927
بادرة	-2928
▁الإنترنت	-2929
▁الرغم	-2930
ادم	-2931
لالة	-2932
▁نمو	-2933
▁ممت	-2934
قديم	-2935
▁مشاركة	-2936
▁لخ	-2937
▁توفر	-2938
▁التم	-2939
▁ابو	-2940
▁مهمة	-2941
▁بينهم	-2942
▁مكتب	-2943
غر	-2944
دير	-2945
ذار	-2946
جين	-2947
▁المسلم	-2948
▁قت	-2949
▁الحقيقة	-2950
▁أبناء	-2951
▁از	-2952
▁نب	-2953
▁الأستاذ	-2954
▁المعارضة	-2955
قيقي	-2956
▁مايو	-2957
▁البلد	-2958
وانات	-2959
▁جمال	-2960
▁بتاريخ	-2961
جاوز	-2962
▁وإنما	-2963
سرائيلية	-2964
▁شأن	-2965
▁ينب	-2966
زق	-2967
▁الرحمن	-2968
▁واف	-2969
▁قائلا	-2970
زوج	-2971
▁لات	-2972
اشة	-2973
وقات	-2974
▁المبا	-2975
▁المقال	-2976
▁فلم	-2977
▁وذكر	-2978
▁ويست	-2979
▁إطلاق	-2980
▁الكبرى	-2981
وجب	-2982
جابة	-2983
▁واع	-2984
▁الإش	-2985
▁عربي	-2986
▁حماية	-2987
▁فلما	-2988
▁الاف	-2989
▁بالا	-2990
▁مشكلة	-2991
▁جب	-2992
▁بواسطة	-2993
ويد	-2994
▁إيج	-2995
▁نائب	-2996
ثاث	-2997
غال	-2998
▁لكنه	-2999
قصى	-3000
بهة	-3001
عرف	-3002
▁فرض	-3003
▁فرصة	-3004
واجه	-3005
طم	-3006
حدد	-3007
▁جان	-3008
▁فكان	-3009
▁الكلام	-3010
▁المستخدم	-3011
▁الاد	-3012
▁القيام	-3013
▁يحتاج	-3014
▁صنع	-3015
▁الصين	-3016
الج	-3017
▁لكرة	-3018
▁الفكر	-3019
▁انته	-3020
▁الرسمي	-3021
ظمات	-3022
نوات	-3023
▁الفرنسي	-3024
▁بدر	-3025
▁طرف	-3026
▁كلها	-3027
ائب	-3028
براير	-3029
بيقات	-3030
▁الوزارة	-3031
ذل	-3032
▁تأثير	-3033
▁معها	-3034
▁المعد	-3035
لمي	-3036
▁الدعم	-3037
▁أصل	-3038
▁المدير	-3039
عددة	-3040
▁الأكثر	-3041
▁النوع	-3042
▁والمن	-3043
نيات	-3044
▁عرب	-3045
▁وهناك	-3046
نادق	-3047
▁وراء	-3048
▁للغاية	-3049
فاض	-3050
▁الإف	-3051
▁البحرين	-3052
داية	-3053
منى	-3054
▁الور	-3055
▁النقل	-3056
▁دخول	-3057
▁المقب	-3058
▁الحوار	-3059
▁كش	-3060
▁البح	-3061
ولت	-3062
▁العين	-3063
▁احمد	-3064
ألة	-3065
▁صدر	-3066
▁نست	-3067
▁سلمان	-3068
▁الأوسط	-3069
▁الأيام	-3070
▁الإرهاب	-3071
فاج	-3072
▁النت	-3073
▁فضلا	-3074
▁الشمس	-3075
▁للك	-3076
سطس	-3077
▁كرة	-3078
▁وأش	-3079
▁والل	-3080
▁الرسمية	-3081
▁الأسد	-3082
▁إف	-3083
قطاع	-3084
▁المفت	-3085
▁مشاكل	-3086
▁القضاء	-3087
▁بكر	-3088
▁الأخبار	-3089
قاش	-3090
▁قلت	-3091
ارد	-3092
▁ونحن	-3093
▁الموت	-3094
▁ضرورة	-3095
▁سيتم	-3096
▁أجهزة	-3097
▁المدرسة	-3098
▁الاقتصادي	-3099
سيم	-3100
ونات	-3101
▁الرجال	-3102
▁البيانات	-3103
▁واب	-3104
خدمات	-3105
▁كلا	-3106
ليمي	-3107
▁اما	-3108
▁الروح	-3109
عتبر	-3110
▁بلاد	-3111
ليغ	-3112
ليك	-3113
▁المستوى	-3114
▁آلاف	-3115
صي	-3116
▁صار	-3117
▁فكرة	-3118
صا	-3119
قيقية	-3120
▁الاش	-3121
▁كبيرا	-3122
▁الحالة	-3123
ناية	-3124
▁العلماء	-3125
علقة	-3126
▁والان	-3127
افر	-3128
ونها	-3129
▁بسر	-3130
▁فم	-3131
▁مجموع	-3132
▁جيد	-3133
▁فبراير	-3134
لقى	-3135
▁قم	-3136
▁الحسن	-3137
▁بشر	-3138
▁أساس	-3139
▁بطريقة	-3140
ناس	-3141
حيانا	-3142
▁خصوصا	-3143
▁بدء	-3144
قتصادية	-3145
حافظة	-3146
▁سيارة	-3147
▁الشرقية	-3148
قييم	-3149
▁مخت	-3150
▁مناف	-3151
▁الانترنت	-3152
صلحة	-3153
▁أصب	-3154
▁للص	-3155
▁دليل	-3156
▁الأمنية	-3157
▁الرياضية	-3158
لبة	-3159
▁يؤدي	-3160
▁رسم	-3161
▁ولاية	-3162
▁حدود	-3163
▁وله	-3164
▁ويس	-3165
▁الرؤ	-3166
▁عثمان	-3167
▁محاولة	-3168
▁الحسين	-3169
فاة	-3170
▁للر	-3171
▁بالر	-3172
▁القديمة	-3173
▁يحمل	-3174
▁مجالات	-3175
▁هن	-3176
▁بعدما	-3177
ابر	-3178
▁كيفية	-3179
سمبر	-3180
▁واح	-3181
▁الثقافة	-3182
لاحظ	-3183
▁كاملة	-3184
▁محافظ	-3185
▁النادي	-3186
خفض	-3187
ثي	-3188
▁ممكن	-3189
▁أوروبا	-3190
روة	-3191
▁سعد	-3192
▁مقر	-3193
▁جيدا	-3194
▁النواب	-3195
ويق	-3196
▁عشرة	-3197
باق	-3198
▁حلقة	-3199
بو	-3200
لل	-3201
▁مرات	-3202
▁عنوان	-3203
▁التالي	-3204
▁الجمعية	-3205
دخل	-3206
▁الآخرين	-3207
ويه	-3208
عمار	-3209
▁الها	-3210
▁عيد	-3211
▁الزمن	-3212
سس	-3213
▁العلوم	-3214
▁البنك	-3215
▁الاتصال	-3216
▁تض	-3217
ابلة	-3218
▁نسب	-3219
▁تستخدم	-3220
▁إنما	-3221
▁الرابع	-3222
▁لأنها	-3223
قلال	-3224
▁الست	-3225
▁دمشق	-3226
▁واعت	-3227
▁معرفة	-3228
▁الروس	-3229
▁وأشار	-3230
▁وأنا	-3231
▁التابعة	-3232
شنطن	-3233
فو	-3234
▁وانت	-3235
▁الإلكتروني	-3236
قلة	-3237
▁ومش	-3238
▁ديسمبر	-3239
▁العسكري	-3240
▁أصبحت	-3241
▁التسجيل	-3242
يبة	-3243
الجة	-3244
▁البا	-3245
▁محتوى	-3246
اليا	-3247
▁كلية	-3248
▁سبق	-3249
تاح	-3250
▁لجميع	-3251
▁الحكومية	-3252
▁الثان	-3253
▁تقريبا	-3254
ظل	-3255
▁إنتاج	-3256
▁والمس	-3257
▁العودة	-3258
▁اجتماع	-3259
غبة	-3260
قاذ	-3261
▁حض	-3262
▁أست	-3263
▁الأج	-3264
▁كري	-3265
▁التنمية	-3266
قاد	-3267
▁حفظ	-3268
▁بلد	-3269
▁لاح	-3270
▁الفنية	-3271
▁التنظيم	-3272
ادق	-3273
▁هدف	-3274
▁القضية	-3275
▁كلمات	-3276
▁ورب	-3277
▁مؤتمر	-3278
وائد	-3279
▁منع	-3280
▁عا	-3281
▁نور	-3282
▁أنفس	-3283
▁مجرد	-3284
▁اليهود	-3285
وزارة	-3286
▁الليل	-3287
قرير	-3288
ماعيل	-3289
▁نجاح	-3290
▁الطبية	-3291
شط	-3292
▁الأشخاص	-3293
▁للايجار	-3294
ردد	-3295
عامل	-3296
▁شراء	-3297
▁مخالف	-3298
▁التون	-3299
يضا	-3300
▁عناصر	-3301
هداف	-3302
▁عربية	-3303
▁وأوضح	-3304
▁يساعد	-3305
▁الحديثة	-3306
نيف	-3307
▁المحكمة	-3308
▁طرق	-3309
عيم	-3310
▁وأخ	-3311
▁ويل	-3312
▁تظهر	-3313
▁كنا	-3314
▁وتس	-3315
▁موسى	-3316
▁الحج	-3317
حسب	-3318
▁فرنسا	-3319
فادة	-3320
▁المؤمنين	-3321
▁كله	-3322
▁ويش	-3323
▁سكان	-3324
▁أغسطس	-3325
▁الأعضاء	-3326
خيص	-3327
▁وحدة	-3328
▁أرد	-3329
▁وخاصة	-3330
▁المؤسسات	-3331
▁المدر	-3332
▁وكيف	-3333
▁شرك	-3334
ياجات	-3335
▁فج	-3336
▁كار	-3337
▁يوميا	-3338
▁الأور	-3339
▁القط	-3340
▁الأميركية	-3341
ناسبة	-3342
▁عباس	-3343
▁الالكتر	-3344
راز	-3345
▁وجل	-3346
▁الأساسية	-3347
▁تا	-3348
اركات	-3349
▁الاشت	-3350
▁اللبنانية	-3351
▁العلمي	-3352
▁عهد	-3353
علانات	-3354
▁بصورة	-3355
حف	-3356
نون	-3357
▁لاف	-3358
▁والتعليم	-3359
كري	-3360
▁ماذا	-3361
▁كر	-3362
▁مادة	-3363
▁بالب	-3364
▁فس	-3365
▁أهداف	-3366
وافق	-3367
▁مان	-3368
▁الحال	-3369
▁العلاقة	-3370
عتقد	-3371
▁عروض	-3372
▁ليلة	-3373
▁برو	-3374
▁الصوت	-3375
▁نوم	-3376
▁مواجهة	-3377
▁عقب	-3378
▁وبر	-3379
▁الني	-3380
▁مهم	-3381
▁نشاط	-3382
صرة	-3383
▁لمع	-3384
▁ولن	-3385
▁مسلم	-3386
▁منزل	-3387
▁يجد	-3388
▁مهما	-3389
▁البشرية	-3390
▁واله	-3391
▁تحرير	-3392
▁إع	-3393
▁الوسط	-3394
▁يرى	-3395
يادات	-3396
▁تفسير	-3397
▁شرق	-3398
يدان	-3399
▁اق	-3400
▁كيل	-3401
▁شخصية	-3402
▁الدينية	-3403
▁رش	-3404
ودي	-3405
▁التك	-3406
▁غال	-3407
▁يعيش	-3408
▁الأوروبي	-3409
▁حز	-3410
▁ويقول	-3411
▁صلاة	-3412
▁الجزيرة	-3413
▁المسلحة	-3414
▁المجموعة	-3415
▁زمن	-3416
▁تستطيع	-3417
باع	-3418
▁الصحي	-3419
▁الدورة	-3420
▁هاتف	-3421
▁الخلا	-3422
▁تشرين	-3423
▁مدرسة	-3424
▁سياسية	-3425
ادل	-3426
كلفة	-3427
▁جمعية	-3428
▁يستخدم	-3429
خم	-3430
قوط	-3431
هيل	-3432
▁افلام	-3433
هاء	-3434
جتمع	-3435
▁تشكيل	-3436
▁دقيقة	-3437
▁بور	-3438
▁بوك	-3439
▁المي	-3440
▁تونس	-3441
▁ينبغي	-3442
ويض	-3443
▁شاهد	-3444
▁تساعد	-3445
راجعة	-3446
▁الشمالية	-3447
دون	-3448
▁اخرى	-3449
▁سورة	-3450
▁جيدة	-3451
▁الهدف	-3452
▁وأم	-3453
▁السياسة	-3454
▁ومس	-3455
▁شن	-3456
▁غرب	-3457
▁بينها	-3458
▁الدخول	-3459
▁شئ	-3460
همية	-3461
▁الفصل	-3462
▁الطبيعية	-3463
▁التعا	-3464
طباء	-3465
▁باعت	-3466
▁سام	-3467
▁دوري	-3468
فعت	-3469
▁يعود	-3470
▁السبب	-3471
ضاع	-3472
▁المناسب	-3473
▁المشكلة	-3474
▁المهم	-3475
▁القوى	-3476
▁حقيقة	-3477
▁الإنسانية	-3478
▁الكبيرة	-3479
قائق	-3480
ميات	-3481
▁يقع	-3482
رار	-3483
رافق	-3484
▁الهاتف	-3485
اوز	-3486
▁والمؤ	-3487
▁القول	-3488
▁توقع	-3489
▁الكتب	-3490
▁قيادة	-3491
▁الأردن	-3492
▁تدخل	-3493
تون	-3494
▁تفاصيل	-3495
▁خلالها	-3496
طيط	-3497
▁يظهر	-3498
جلة	-3499
▁يرت	-3500
▁الرياضة	-3501
▁وقع	-3502
▁الوس	-3503
▁مؤخرا	-3504
▁المحلي	-3505
طى	-3506
ندا	-3507
▁يهم	-3508
▁جو	-3509
▁الابت	-3510
▁خلا	-3511
▁التركية	-3512
زه	-3513
▁ملت	-3514
▁أسبوع	-3515
▁الديمقراطية	-3516
▁شرح	-3517
▁خمسة	-3518
آت	-3519
▁يز	-3520
حمل	-3521
قتها	-3522
▁والاج	-3523
▁بيانات	-3524
ليس	-3525
▁صحة	-3526
▁امام	-3527
▁الإسرائيلية	-3528
▁مول	-3529
▁وقف	-3530
▁اللح	-3531
حول	-3532
▁يط	-3533
▁قرية	-3534
▁قيام	-3535
صفات	-3536
قدير	-3537
▁الأقل	-3538
▁المدارس	-3539
لاين	-3540
فعة	-3541
مرة	-3542
▁فب	-3543
▁رؤية	-3544
▁القوة	-3545
▁شم	-3546
▁النز	-3547
▁التعب	-3548
▁أبرز	-3549
▁جع	-3550
▁قرب	-3551
▁سبحانه	-3552
▁تث	-3553
▁اختر	-3554
ندي	-3555
حقق	-3556
▁سلم	-3557
▁الخي	-3558
▁شارع	-3559
▁صغير	-3560
وامل	-3561
▁الموجودة	-3562
حاق	-3563
▁غس	-3564
▁بالمئة	-3565
▁التحالف	-3566
ريت	-3567
▁تجربة	-3568
▁حاجة	-3569
▁الوزير	-3570
▁واشنطن	-3571
▁التعليمية	-3572
رر	-3573
صدق	-3574
صيل	-3575
ذيب	-3576
▁يمت	-3577
▁السماء	-3578
ائرات	-3579
▁الحقوق	-3580
▁الأما	-3581
▁العنف	-3582
▁الرئيسي	-3583
▁والمر	-3584
▁المحافظة	-3585
طط	-3586
▁الوج	-3587
ظاهر	-3588
ثال	-3589
▁سليمان	-3590
▁العراقية	-3591
▁ليبيا	-3592
▁المسجد	-3593
واز	-3594
درات	-3595
▁القيادة	-3596
▁للعمل	-3597
كومة	-3598
▁ظهور	-3599
▁قراءة	-3600
▁المواضيع	-3601
▁لتحقيق	-3602
▁التالية	-3603
▁مصطفى	-3604
▁زا	-3605
▁تدري	-3606
▁فندق	-3607
طاق	-3608
▁يجوز	-3609
فذ	-3610
ربين	-3611
سيقى	-3612
ديقة	-3613
▁الرك	-3614
▁ترت	-3615
▁معرض	-3616
▁والي	-3617
▁التركي	-3618
سبق	-3619
▁إجراء	-3620
▁القت	-3621
▁الأميركي	-3622
كندر	-3623
▁مكة	-3624
▁أربعة	-3625
▁إنشاء	-3626
نيين	-3627
▁قيم	-3628
▁أبريل	-3629
▁المؤسسة	-3630
طح	-3631
ندية	-3632
▁بحق	-3633
▁مالي	-3634
فال	-3635
▁توجد	-3636
▁مدريد	-3637
▁والمش	-3638
▁الجاري	-3639
▁نظرا	-3640
▁الباحث	-3641
▁الطريقة	-3642
واة	-3643
▁مؤكدا	-3644
▁أننا	-3645
▁السفر	-3646
▁بالله	-3647
غرب	-3648
▁النو	-3649
▁التقلي	-3650
يتها	-3651
▁طول	-3652
▁معينة	-3653
▁صناعة	-3654
صفح	-3655
▁الإلكترونية	-3656
▁المشاه	-3657
▁السادس	-3658
▁اللغ	-3659
▁جام	-3660
▁عائ	-3661
▁المركزي	-3662
واجد	-3663
▁رائعة	-3664
▁تعا	-3665
▁السيارة	-3666
وضة	-3667
▁لفت	-3668
▁والآ	-3669
▁الحمل	-3670
▁وو	-3671
▁منتخب	-3672
▁أحدث	-3673
▁السودانية	-3674
▁مدة	-3675
▁ومست	-3676
▁السنوات	-3677
حته	-3678
▁البخ	-3679
▁لض	-3680
▁هى	-3681
▁الحض	-3682
▁نجد	-3683
ابا	-3684
▁مجه	-3685
▁بتح	-3686
▁النمو	-3687
▁تقع	-3688
▁بمدينة	-3689
زالة	-3690
وعية	-3691
▁القادمة	-3692
▁القي	-3693
▁سلسلة	-3694
▁الأزمة	-3695
▁المنتديات	-3696
▁يحب	-3697
▁ففي	-3698
▁موج	-3699
رافي	-3700
▁نقدم	-3701
▁وبعض	-3702
▁الملا	-3703
▁التجارة	-3704
اضي	-3705
▁العص	-3706
▁مكون	-3707
▁شهادة	-3708
جية	-3709
عدد	-3710
دافع	-3711
▁حفل	-3712
▁الطلب	-3713
▁البناء	-3714
▁المالي	-3715
نك	-3716
▁حملة	-3717
▁الوحيد	-3718
ذف	-3719
▁للمر	-3720
▁انتقل	-3721
▁البريطانية	-3722
▁المرا	-3723
▁بسي	-3724
▁ومنها	-3725
امر	-3726
▁لعب	-3727
▁للحصول	-3728
نيسة	-3729
▁معهم	-3730
▁مأ	-3731
▁أثر	-3732
▁جودة	-3733
▁ستكون	-3734
▁نسخة	-3735
الث	-3736
▁بز	-3737
▁رك	-3738
▁الرد	-3739
▁الواس	-3740
▁هكذا	-3741
▁الجنة	-3742
▁ويد	-3743
ثمر	-3744
▁مميز	-3745
▁الصغيرة	-3746
فقة	-3747
▁الأبيض	-3748
▁رحمه	-3749
▁لديه	-3750
▁ند	-3751
قرة	-3752
▁فهذا	-3753
▁الياب	-3754
▁جماعة	-3755
▁المنظمة	-3756
▁كا	-3757
وتين	-3758
▁أداء	-3759
▁الحس	-3760
▁بدلا	-3761
▁الإنتاج	-3762
▁التعريف	-3763
▁بتن	-3764
▁للتن	-3765
▁الكرة	-3766
▁متخصصة	-3767
▁الرابعة	-3768
ناف	-3769
▁المتعلقة	-3770
▁عادة	-3771
▁الانسان	-3772
▁الضغط	-3773
▁الخامس	-3774
▁الأجهزة	-3775
▁مساحة	-3776
▁السج	-3777
▁وتص	-3778
ثرة	-3779
▁ذه	-3780
▁البش	-3781
▁تمثل	-3782
▁خس	-3783
▁تغير	-3784
▁موعد	-3785
▁أفراد	-3786
▁خطة	-3787
▁العرض	-3788
▁الأهلي	-3789
▁يمثل	-3790
▁تعزيز	-3791
▁نم	-3792
▁اللاج	-3793
▁الأحمر	-3794
وده	-3795
علوم	-3796
▁مقارنة	-3797
▁ضرب	-3798
▁ولما	-3799
▁يبلغ	-3800
فن	-3801
ومان	-3802
▁معنا	-3803
▁الرأي	-3804
▁المدنية	-3805
▁الشرعية	-3806
ليقات	-3807
▁عديدة	-3808
▁مال	-3809
▁ولل	-3810
▁البار	-3811
▁معد	-3812
▁الأر	-3813
▁شاء	-3814
▁الجهات	-3815
ظف	-3816
▁أسباب	-3817
▁المعا	-3818
▁متوسط	-3819
ثناء	-3820
▁تمر	-3821
▁استش	-3822
طلاع	-3823
▁أحب	-3824
▁العقل	-3825
ملية	-3826
▁لين	-3827
▁بالص	-3828
▁المحي	-3829
▁فرص	-3830
▁التاس	-3831
يسى	-3832
▁طرح	-3833
▁مقت	-3834
▁شارك	-3835
▁واسعة	-3836
قين	-3837
ابقة	-3838
▁أراد	-3839
▁العهد	-3840
▁النتائج	-3841
زيا	-3842
▁أى	-3843
▁حظ	-3844
جير	-3845
▁الفندق	-3846
بيد	-3847
وبا	-3848
▁سأ	-3849
▁منح	-3850
ارض	-3851
▁ده	-3852
▁جميل	-3853
▁ولكنه	-3854
▁النظ	-3855
غاء	-3856
▁الحوث	-3857
▁حالات	-3858
▁وعندما	-3859
▁التقرير	-3860
▁الفرد	-3861
▁دينار	-3862
▁والسيا	-3863
▁البيئة	-3864
فش	-3865
▁للو	-3866
▁وأس	-3867
اعد	-3868
▁اليد	-3869
▁الجوية	-3870
▁البرلمان	-3871
▁بيد	-3872
▁عما	-3873
▁غيره	-3874
▁كف	-3875
▁تقل	-3876
▁الرج	-3877
▁تشغيل	-3878
▁المقبلة	-3879
هلة	-3880
▁محل	-3881
▁النوم	-3882
▁امرأة	-3883
▁والمست	-3884
▁عبدالعزيز	-3885
▁الذات	-3886
▁وأنه	-3887
▁الكرام	-3888
▁نصر	-3889
كلات	-3890
▁أدى	-3891
▁سياسة	-3892
▁الإخوان	-3893
▁الفلسطينيين	-3894
تيح	-3895
▁وجاء	-3896
▁السؤال	-3897
▁المسيح	-3898
▁المنتجات	-3899
خال	-3900
▁إسلام	-3901
▁اللون	-3902
▁المدن	-3903
▁حياته	-3904
▁قاد	-3905
▁بعدها	-3906
▁كأن	-3907
▁ومح	-3908
▁ترا	-3909
▁الساح	-3910
▁بالرياض	-3911
نوان	-3912
ولين	-3913
▁جاه	-3914
▁الجنوب	-3915
▁بالكامل	-3916
وارع	-3917
▁الواحد	-3918
ناع	-3919
ارقة	-3920
كره	-3921
▁طل	-3922
ائح	-3923
▁منز	-3924
وته	-3925
▁حدثنا	-3926
▁أربع	-3927
▁الاص	-3928
▁لإن	-3929
▁قوية	-3930
▁الكل	-3931
▁الاسلامية	-3932
▁مناسب	-3933
▁اجل	-3934
▁بريط	-3935
▁الروسي	-3936
▁الشمال	-3937
جزاء	-3938
▁دائرة	-3939
▁طف	-3940
▁نن	-3941
بادة	-3942
وهات	-3943
▁معروض	-3944
▁الزواج	-3945
▁المكت	-3946
نائي	-3947
▁الاجتماع	-3948
▁الدراسات	-3949
▁يض	-3950
▁وتج	-3951
▁السعر	-3952
▁الصحفي	-3953
▁بالفعل	-3954
طوم	-3955
▁الخير	-3956
▁النقد	-3957
▁النائب	-3958
▁الخض	-3959
▁ولذلك	-3960
▁السينما	-3961
▁لغة	-3962
▁هام	-3963
▁خمس	-3964
ائة	-3965
خصوص	-3966
▁الاولى	-3967
▁العظيم	-3968
▁شيخ	-3969
▁الأسرة	-3970
▁بأي	-3971
▁البلا	-3972
هوم	-3973
▁يحي	-3974
▁يسمى	-3975
▁إعلام	-3976
كندرية	-3977
ينات	-3978
▁إله	-3979
▁لأي	-3980
▁المحد	-3981
▁تجاوز	-3982
▁اللازمة	-3983
▁المشاكل	-3984
ذى	-3985
▁الحبيب	-3986
▁ويتم	-3987
▁المشترك	-3988
باه	-3989
▁المنش	-3990
رشح	-3991
ائري	-3992
▁تجمع	-3993
▁سؤال	-3994
▁مواد	-3995
حايا	-3996
ساني	-3997
▁الفع	-3998
واك	-3999
▁ومؤ	-4000
ضرورة	-4001
▁سنت	-4002
▁لمش	-4003
▁العمليات	-4004
▁لديك	-4005
▁الأعلى	-4006
غلال	-4007
▁الفيلم	-4008
▁والسلام	-4009
▁الأحداث	-4010
▁الده	-4011
▁قضايا	-4012
ياز	-4013
خفاض	-4014
▁بأنها	-4015
▁المقاومة	-4016
برت	-4017
▁صفحة	-4018
▁وتحميل	-4019
ثيل	-4020
كمال	-4021
▁والز	-4022
▁بول	-4023
▁الحالية	-4024
بلوما	-4025
▁وترك	-4026
▁والتح	-4027
▁الطبيعي	-4028
▁المهندس	-4029
▁الأصل	-4030
▁الغذائية	-4031
▁ضغط	-4032
▁وأع	-4033
▁مساعد	-4034
طلقت	-4035
نها	-4036
واني	-4037
▁إعلان	-4038
▁الروسية	-4039
▁أز	-4040
جح	-4041
ذاب	-4042
▁تمن	-4043
▁يدخل	-4044
ملت	-4045
▁الغرب	-4046
▁التبليغ	-4047
▁القراءة	-4048
▁بيروت	-4049
▁الفساد	-4050
▁التحرير	-4051
▁فيت	-4052
▁يزال	-4053
سفة	-4054
عتها	-4055
▁البيان	-4056
▁بلغت	-4057
▁بعضهم	-4058
▁الثقافية	-4059
صري	-4060
▁اللواء	-4061
▁القائمة	-4062
روي	-4063
▁وصلت	-4064
▁أط	-4065
▁التنفيذ	-4066
▁أصدر	-4067
▁أمريكا	-4068
▁إعداد	-4069
▁بسرعة	-4070
▁بعيدا	-4071
▁يحصل	-4072
ورها	-4073
▁الممكن	-4074
سبوك	-4075
▁بأس	-4076
▁مقتل	-4077
▁تويتر	-4078
▁الشعبي	-4079
جمة	-4080
▁المحافظ	-4081
اتم	-4082
▁جاءت	-4083
▁بالمن	-4084
▁مجانا	-4085
▁الته	-4086
▁لديهم	-4087
▁تأتي	-4088
داة	-4089
▁فصل	-4090
ئه	-4091
▁سكن	-4092
▁السا	-4093
▁أنحاء	-4094
▁حاج	-4095
▁عنهم	-4096
▁وكأن	-4097
▁رواه	-4098
▁الذهب	-4099
▁تحتوي	-4100
▁ملفات	-4101
▁الصحيح	-4102
امه	-4103
كلف	-4104
▁يقل	-4105
كلم	-4106
قوله	-4107
▁المغربي	-4108
رويد	-4109
ختار	-4110
▁منتجات	-4111
▁السما	-4112
▁بغداد	-4113
▁صي	-4114
▁رائع	-4115
لفزيون	-4116
▁القادم	-4117
▁القدرة	-4118
واتف	-4119
مرت	-4120
▁الوجه	-4121
▁مترجمة	-4122
اده	-4123
ائها	-4124
▁الذه	-4125
▁قاعدة	-4126
▁السياحة	-4127
ورى	-4128
وضاع	-4129
▁كلم	-4130
▁الوحدة	-4131
فيق	-4132
▁الكون	-4133
▁المحم	-4134
▁استمرار	-4135
▁الأمين	-4136
▁مشاريع	-4137
▁ويع	-4138
▁تصريح	-4139
▁الحديد	-4140
▁اللعبة	-4141
خلق	-4142
▁نار	-4143
▁العدد	-4144
طعمة	-4145
وحيد	-4146
▁أبدا	-4147
▁تحويل	-4148
▁للدعم	-4149
▁وفى	-4150
▁الرابط	-4151
رفية	-4152
▁انش	-4153
▁الاع	-4154
▁والعمل	-4155
▁سابق	-4156
▁سلام	-4157
▁الواق	-4158
▁فري	-4159
▁معنى	-4160
▁برم	-4161
▁المغربية	-4162
▁القانونية	-4163
▁لز	-4164
انيات	-4165
▁دورة	-4166
▁كريم	-4167
▁الإيط	-4168
▁يحتوي	-4169
▁عاش	-4170
▁الألعاب	-4171
▁سما	-4172
▁بطاقة	-4173
▁تحقق	-4174
▁وهكذا	-4175
▁الجنسية	-4176
▁الصناعية	-4177
طنة	-4178
▁فرق	-4179
▁وتد	-4180
▁ذاته	-4181
وسع	-4182
▁قائد	-4183
▁البرا	-4184
واجهة	-4185
▁التصميم	-4186
كرم	-4187
▁ميز	-4188
▁ترب	-4189
▁الجب	-4190
▁المشرو	-4191
واح	-4192
ودا	-4193
داخل	-4194
▁وبد	-4195
▁ذهب	-4196
▁الفرق	-4197
▁البداية	-4198
▁التطبيق	-4199
ياج	-4200
▁الجودة	-4201
واه	-4202
كرر	-4203
▁كبار	-4204
▁القضايا	-4205
▁الخل	-4206
▁أنك	-4207
▁برا	-4208
▁قوم	-4209
▁احدث	-4210
ئك	-4211
شات	-4212
ودية	-4213
▁المسلسل	-4214
انع	-4215
▁يقت	-4216
▁بض	-4217
▁مسب	-4218
▁الخر	-4219
▁تصريحات	-4220
ائن	-4221
تان	-4222
▁الحرية	-4223
▁الشاعر	-4224
▁بعنوان	-4225
▁ملايين	-4226
صدر	-4227
▁شا	-4228
▁الظروف	-4229
امات	-4230
▁بنك	-4231
▁وطن	-4232
فيض	-4233
ريحة	-4234
جهيز	-4235
▁كأ	-4236
اليب	-4237
▁الانق	-4238
▁محكمة	-4239
▁ونت	-4240
▁يقال	-4241
▁تي	-4242
صحاب	-4243
▁الدستور	-4244
▁شب	-4245
راما	-4246
▁صبا	-4247
▁كفر	-4248
▁أون	-4249
▁لابد	-4250
▁الحقيقي	-4251
▁وايت	-4252
رجة	-4253
ـــــ	-4254
▁الحرم	-4255
▁الشارع	-4256
▁العالي	-4257
▁اللاجئين	-4258
▁وأما	-4259
▁عمرو	-4260
▁مالك	-4261
▁مجتمع	-4262
شى	-4263
زمات	-4264
▁وأف	-4265
▁تبدأ	-4266
▁حضور	-4267
▁الجنوبية	-4268
▁زم	-4269
▁المثال	-4270
▁برش	-4271
▁الممت	-4272
ذات	-4273
▁تسبب	-4274
▁أطفال	-4275
▁متعددة	-4276
▁الإيراني	-4277
▁العصر	-4278
▁خيارات	-4279
▁المشاريع	-4280
اااا	-4281
▁مدار	-4282
▁ترى	-4283
وائل	-4284
تمعات	-4285
▁المكتب	-4286
▁باعتبار	-4287
وتيوب	-4288
زاز	-4289
▁الالت	-4290
▁متابعة	-4291
▁تشمل	-4292
▁نقاط	-4293
▁سياسي	-4294
ئت	-4295
سمى	-4296
فاوضات	-4297
▁والمح	-4298
دن	-4299
هلك	-4300
جارة	-4301
▁أية	-4302
ساط	-4303
▁الغاز	-4304
▁اتحاد	-4305
مكان	-4306
▁للمس	-4307
يفون	-4308
▁أيها	-4309
▁المناسبة	-4310
▁بنفسك	-4311
روفة	-4312
▁يسمح	-4313
سمع	-4314
ساهم	-4315
▁دعا	-4316
▁إمكانية	-4317
ندن	-4318
▁أخر	-4319
▁نفسي	-4320
ارى	-4321
سباني	-4322
▁تشكل	-4323
▁عسكرية	-4324
▁البرو	-4325
▁المهمة	-4326
▁الكهرباء	-4327
▁المتوسط	-4328
▁اللبناني	-4329
قيه	-4330
جليزي	-4331
▁لديها	-4332
▁لكنها	-4333
▁يملك	-4334
▁مجد	-4335
زيارة	-4336
▁الفور	-4337
▁بمناسبة	-4338
▁علما	-4339
▁سيما	-4340
فاءة	-4341
▁الارت	-4342
▁فرع	-4343
▁صندوق	-4344
قيام	-4345
▁مياه	-4346
▁الامر	-4347
▁إضاف	-4348
قليمية	-4349
طاليا	-4350
▁تعود	-4351
▁اليومية	-4352
دمير	-4353
واطن	-4354
▁أور	-4355
▁سمع	-4356
▁صحي	-4357
▁اجمل	-4358
▁الإجراءات	-4359
▁باريس	-4360
ظي	-4361
صرف	-4362
طين	-4363
جمات	-4364
▁طوال	-4365
أكيد	-4366
وسطة	-4367
▁حاول	-4368
▁البريد	-4369
نيع	-4370
▁وعم	-4371
▁الشاب	-4372
▁والاجتما	-4373
جمالي	-4374
▁اللاعبين	-4375
▁الرسالة	-4376
▁سابقا	-4377
▁لمس	-4378
▁بعيد	-4379
▁جهود	-4380
تش	-4381
▁فور	-4382
▁وتف	-4383
▁مطار	-4384
▁العمال	-4385
▁الملكي	-4386
▁أحداث	-4387
ثور	-4388
▁أحيانا	-4389
▁الإثنين	-4390
▁رأي	-4391
شية	-4392
▁المض	-4393
▁يصبح	-4394
▁للمست	-4395
زر	-4396
غار	-4397
▁واحت	-4398
▁المها	-4399
لفت	-4400
▁فص	-4401
غطية	-4402
لامي	-4403
▁الحرارة	-4404
▁فق	-4405
▁الوزن	-4406
فعيل	-4407
▁الاستثمار	-4408
▁حلول	-4409
▁فات	-4410
▁يخرج	-4411
▁التغيير	-4412
اصل	-4413
▁جيش	-4414
▁زين	-4415
▁اتخاذ	-4416
▁الفوز	-4417
▁مجانية	-4418
دوز	-4419
▁فوز	-4420
▁التدريب	-4421
▁المطلوب	-4422
خبرة	-4423
شيات	-4424
▁مرك	-4425
▁القومي	-4426
▁انف	-4427
انوني	-4428
▁وحده	-4429
وذ	-4430
ظفين	-4431
▁لتع	-4432
رويج	-4433
وراق	-4434
▁علا	-4435
▁قرر	-4436
▁عددا	-4437
▁ألمانيا	-4438
▁للتسجيل	-4439
▁معين	-4440
▁ثانية	-4441
▁النشاط	-4442
ئيا	-4443
▁نيوز	-4444
▁وارت	-4445
بيين	-4446
▁أين	-4447
▁الرم	-4448
▁الذكر	-4449
▁المذك	-4450
▁بوابة	-4451
▁جميلة	-4452
▁الواسعة	-4453
▁اه	-4454
حيان	-4455
وكيل	-4456
▁مجلة	-4457
▁المصادر	-4458
رائب	-4459
▁منك	-4460
الحة	-4461
▁إنت	-4462
▁فكر	-4463
▁واضحة	-4464
▁الجولة	-4465
▁الموقف	-4466
▁رق	-4467
▁دقائق	-4468
▁والبر	-4469
كتاب	-4470
▁يلت	-4471
▁التو	-4472
▁الأكبر	-4473
▁الهلال	-4474
▁التاريخية	-4475
▁دعوة	-4476
▁ثابت	-4477
▁لصالح	-4478
وفة	-4479
رافية	-4480
▁للأس	-4481
▁إقامة	-4482
▁كانون	-4483
▁وربما	-4484
▁التقنية	-4485
فد	-4486
▁شبه	-4487
▁مني	-4488
▁الشام	-4489
▁استطاع	-4490
▁تحسين	-4491
غت	-4492
▁ضبط	-4493
▁يتحدث	-4494
▁الحفاظ	-4495
▁القديم	-4496
▁الحالات	-4497
▁الداخلي	-4498
▁المجالات	-4499
▁عصر	-4500
▁وآله	-4501
▁الخطاب	-4502
فيذي	-4503
▁انتشار	-4504
قيات	-4505
▁التغ	-4506
▁وأيضا	-4507
▁الدقيقة	-4508
ظومة	-4509
▁علماء	-4510
نم	-4511
اميم	-4512
▁مواطن	-4513
▁يو	-4514
▁ثورة	-4515
▁وتست	-4516
▁الحمد	-4517
▁الفعل	-4518
▁الأشياء	-4519
▁الاعلام	-4520
وعي	-4521
▁واضح	-4522
فور	-4523
▁اك	-4524
فاعل	-4525
▁الترب	-4526
صات	-4527
▁بري	-4528
▁الصراع	-4529
▁النبات	-4530
▁الكلمات	-4531
شب	-4532
▁انق	-4533
▁عودة	-4534
▁مبارك	-4535
▁السيطرة	-4536
▁الحرير	-4537
▁خال	-4538
▁الجد	-4539
▁والات	-4540
▁آن	-4541
▁الجماعة	-4542
أتي	-4543
▁لوحة	-4544
▁يشعر	-4545
▁جا	-4546
▁حدوث	-4547
▁شرطة	-4548
▁وأح	-4549
ديمية	-4550
▁مستشفى	-4551
باك	-4552
▁ورش	-4553
▁يشكل	-4554
▁الأراضي	-4555
ارئ	-4556
سنان	-4557
لامات	-4558
▁ثقاف	-4559
خاب	-4560
▁اسمه	-4561
▁يؤكد	-4562
▁الاقت	-4563
جرد	-4564
بادئ	-4565
فيفة	-4566
▁ملعب	-4567
▁المشاهدات	-4568
▁تجعل	-4569
يروس	-4570
غان	-4571
ساطة	-4572
نامج	-4573
▁بالض	-4574
▁ملابس	-4575
درس	-4576
▁يمنع	-4577
▁السير	-4578
▁لمعا	-4579
▁بعضها	-4580
▁تضم	-4581
▁تواجه	-4582
▁الرسائل	-4583
يلات	-4584
▁التنظيف	-4585
▁نه	-4586
▁استع	-4587
▁كلما	-4588
▁مناز	-4589
▁ميل	-4590
▁باقي	-4591
▁نفسك	-4592
▁يحاول	-4593
▁الحشرات	-4594
▁ذو	-4595
▁توزيع	-4596
▁الخامسة	-4597
▁يجري	-4598
▁مناسبة	-4599
▁الشيء	-4600
▁قالوا	-4601
▁الحاجة	-4602
وجل	-4603
▁أخبر	-4604
▁قلوب	-4605
▁مطبخ	-4606
▁بينهما	-4607
▁المشتركة	-4608
اضر	-4609
هران	-4610
طلبات	-4611
▁تصوير	-4612
جهات	-4613
ريقي	-4614
▁تعديل	-4615
▁النجاح	-4616
▁النيل	-4617
▁الأطراف	-4618
▁المتحدث	-4619
▁مصنع	-4620
شيخ	-4621
▁الممارسة	-4622
▁سعود	-4623
▁وجدت	-4624
▁الهواء	-4625
▁الثلاثة	-4626
رقام	-4627
▁مبر	-4628
▁عادل	-4629
▁اعتبار	-4630
▁العاملين	-4631
وست	-4632
▁الصيف	-4633
▁القيا	-4634
سو	-4635
يله	-4636
▁القوانين	-4637
ضل	-4638
▁فهل	-4639
▁ويح	-4640
▁وفاة	-4641
▁ونا	-4642
وادث	-4643
▁بلاده	-4644
▁علاقات	-4645
▁الملفات	-4646
▁يبقى	-4647
▁البحرية	-4648
▁الثانوية	-4649
▁السوداني	-4650
ئر	-4651
▁شاب	-4652
▁شقة	-4653
▁مراكز	-4654
▁الأوروبية	-4655
ضير	-4656
▁سود	-4657
▁ضوء	-4658
▁أشخاص	-4659
▁يه	-4660
▁الصهي	-4661
▁خليفة	-4662
صير	-4663
غلاق	-4664
▁كشفت	-4665
▁وعدد	-4666
▁بحضور	-4667
▁المعروف	-4668
▁مسئ	-4669
اتل	-4670
ادثة	-4671
بارات	-4672
▁الاخبار	-4673
▁وسوف	-4674
▁البطولة	-4675
صيد	-4676
▁واج	-4677
ريقية	-4678
▁فعلا	-4679
▁مواقف	-4680
اجر	-4681
▁خز	-4682
▁اكبر	-4683
▁خلاف	-4684
▁السيسي	-4685
حتها	-4686
▁إرها	-4687
▁الانتقال	-4688
كاة	-4689
▁أسماء	-4690
▁الحاج	-4691
عوبة	-4692
▁مؤسسات	-4693
▁إجراءات	-4694
▁المشورة	-4695
▁مستويات	-4696
نيه	-4697
▁مشرو	-4698
▁عشرات	-4699
▁مصالح	-4700
لاع	-4701
▁سقوط	-4702
▁ضمان	-4703
▁العدل	-4704
▁وتر	-4705
▁توجه	-4706
▁حماس	-4707
ظائف	-4708
▁مرور	-4709
▁مستقبل	-4710
▁وهل	-4711
▁اليه	-4712
▁وإلى	-4713
▁الثقافي	-4714
▁الدعوة	-4715
▁النهاية	-4716
راعة	-4717
ديلات	-4718
▁القل	-4719
▁يبدأ	-4720
▁بذ	-4721
▁قض	-4722
▁كتابة	-4723
آخر	-4724
▁النه	-4725
▁أنفسهم	-4726
▁برشل	-4727
▁المصر	-4728
▁النهائي	-4729
يجة	-4730
▁أموال	-4731
▁التونسي	-4732
▁حلم	-4733
▁الجو	-4734
▁صفوف	-4735
▁النات	-4736
▁السلاح	-4737
▁الإب	-4738
▁للات	-4739
▁الرئا	-4740
▁أفريقيا	-4741
▁الأسعار	-4742
▁صب	-4743
▁أزمة	-4744
▁شخصا	-4745
شم	-4746
▁ثاني	-4747
▁المأ	-4748
▁البيع	-4749
▁لأول	-4750
▁السكر	-4751
ويم	-4752
▁فالم	-4753
▁اسلام	-4754
▁اهتمام	-4755
تمال	-4756
▁يفعل	-4757
▁البخاري	-4758
▁المساعد	-4759
▁ستة	-4760
▁تعريف	-4761
▁يرج	-4762
▁البلدين	-4763
▁فعاليات	-4764
رخ	-4765
اول	-4766
ضعف	-4767
▁موض	-4768
▁غياب	-4769
▁الصباح	-4770
قيدة	-4771
▁يلي	-4772
ربات	-4773
▁إني	-4774
ثبت	-4775
سته	-4776
فعال	-4777
▁لون	-4778
▁القصة	-4779
▁الإصلاح	-4780
ينو	-4781
رجال	-4782
▁قليل	-4783
ضرار	-4784
▁ايج	-4785
▁توجيه	-4786
عدم	-4787
غية	-4788
▁لتش	-4789
▁بالدم	-4790
▁السيدة	-4791
يح	-4792
▁لبعض	-4793
▁لعام	-4794
▁لندن	-4795
لكم	-4796
كوين	-4797
▁ولقد	-4798
▁المئة	-4799
ترا	-4800
شرق	-4801
فرة	-4802
▁جسم	-4803
▁ثالث	-4804
ائم	-4805
▁يون	-4806
▁الملكية	-4807
▁تخرج	-4808
▁مباريات	-4809
▁ناحية	-4810
طالبة	-4811
▁استخدم	-4812
▁مواضيع	-4813
▁حتي	-4814
▁فاع	-4815
▁ورئيس	-4816
▁الاهتمام	-4817
▁خطر	-4818
▁البيضاء	-4819
▁الدولار	-4820
▁المسرح	-4821
▁الأمراض	-4822
▁الجامعات	-4823
▁حجر	-4824
▁غدا	-4825
▁طبعا	-4826
▁ابراهيم	-4827
▁الإصابة	-4828
▁القاعدة	-4829
▁كمية	-4830
▁نطاق	-4831
▁الإرهابية	-4832
▁بقوة	-4833
▁كهرب	-4834
▁منتصف	-4835
حتاج	-4836
▁جلب	-4837
▁المتط	-4838
▁رواية	-4839
▁الاتصالات	-4840
▁بالتعاون	-4841
ريه	-4842
▁التنفيذي	-4843
وتا	-4844
▁اللعب	-4845
سف	-4846
وطن	-4847
▁للي	-4848
▁المتن	-4849
▁توقعات	-4850
عدام	-4851
▁المرة	-4852
▁النور	-4853
▁آمن	-4854
▁اليمني	-4855
▁انتهاء	-4856
▁ولكنها	-4857
▁بريطانيا	-4858
▁تخص	-4859
ريبية	-4860
▁جلسة	-4861
▁الفرا	-4862
▁المؤلف	-4863
▁تلق	-4864
▁رأى	-4865
▁ماء	-4866
▁المكر	-4867
▁واحدا	-4868
▁العائلة	-4869
يير	-4870
زيمة	-4871
▁البرت	-4872
▁مدونة	-4873
ماك	-4874
هوة	-4875
يقة	-4876
▁وهى	-4877
▁واقع	-4878
▁إنسان	-4879
▁الصحف	-4880
▁الغير	-4881
حيب	-4882
▁ــ	-4883
ناسب	-4884
▁وار	-4885
▁وبا	-4886
▁يفت	-4887
▁ذكرت	-4888
▁ناصر	-4889
▁الغربي	-4890
▁النهار	-4891
▁شار	-4892
▁ضعف	-4893
صدقاء	-4894
▁الخز	-4895
▁التمو	-4896
▁انواع	-4897
▁وتابع	-4898
▁لاي	-4899
▁بالغ	-4900
▁بحاجة	-4901
▁غيرها	-4902
▁قليلة	-4903
الفة	-4904
▁بفضل	-4905
▁الجزائري	-4906
وفا	-4907
قدمة	-4908
▁مسؤ	-4909
▁جراء	-4910
▁والض	-4911
ئل	-4912
▁تزال	-4913
▁تعيش	-4914
وكي	-4915
▁وام	-4916
▁ورغم	-4917
▁آخرين	-4918
▁المكون	-4919
▁البلدان	-4920
▁التحقيق	-4921
▁تضمن	-4922
▁جائزة	-4923
▁الصالح	-4924
طبيق	-4925
▁المنورة	-4926
بيعة	-4927
؟؟؟؟	-4928
▁كوب	-4929
▁أطلق	-4930
▁أغلب	-4931
▁شهدت	-4932
تة	-4933
لو	-4934
▁قدرة	-4935
▁وجهة	-4936
▁السابع	-4937
▁متأ	-4938
▁تبقى	-4939
▁طويل	-4940
▁السكن	-4941
▁برشلونة	-4942
▁زيت	-4943
▁مالية	-4944
▁والأم	-4945
▁الأسواق	-4946
▁جدة	-4947
▁الطالب	-4948
▁الإعلان	-4949
▁العملاء	-4950
▁فار	-4951
▁الرياضي	-4952
▁الضوء	-4953
▁مسألة	-4954
▁الأموال	-4955
هاوس	-4956
▁ويف	-4957
واريخ	-4958
▁اليون	-4959
▁الغرفة	-4960
▁ممارسة	-4961
▁سيف	-4962
▁قري	-4963
▁مفهوم	-4964
▁التقدم	-4965
▁التفكير	-4966
خمة	-4967
وليد	-4968
▁وكما	-4969
▁الدار	-4970
▁الأسود	-4971
▁الجوال	-4972
سير	-4973
قيب	-4974
▁طفل	-4975
حاديث	-4976
▁شروط	-4977
▁وأكثر	-4978
اقات	-4979
▁عمله	-4980
▁قليلا	-4981
▁الطبيب	-4982
كى	-4983
وغان	-4984
▁مسل	-4985
▁وهنا	-4986
▁كتابه	-4987
▁التحكم	-4988
▁أكدت	-4989
▁يعتقد	-4990
▁الطلبة	-4991
ذاك	-4992
ورج	-4993
▁وخص	-4994
▁البع	-4995
▁جذ	-4996
▁الموافق	-4997
متع	-4998
▁إتصل	-4999
▁سج	-5000
▁طن	-5001
مالك	-5002
▁الامري	-5003
راحات	-5004
▁تحول	-5005
▁إصدار	-5006
جميل	-5007
▁آدم	-5008
▁يطلب	-5009
▁الشكل	-5010
▁الموارد	-5011
▁الحيوانات	-5012
▁ورس	-5013
▁وبدأ	-5014
ثمارات	-5015
▁الاج	-5016
▁تشهد	-5017
▁العملات	-5018
▁اليس	-5019
خن	-5020
راكة	-5021
خير	-5022
وانب	-5023
▁وستنج	-5024
طه	-5025
قاق	-5026
▁اسط	-5027
اطئ	-5028
يدر	-5029
▁كاف	-5030
▁الفائ	-5031
▁الإدارية	-5032
بيان	-5033
▁ليت	-5034
▁ووف	-5035
▁مكتبة	-5036
▁اقرأ	-5037
▁الخروج	-5038
▁المسؤولية	-5039
▁ذي	-5040
رباح	-5041
وووو	-5042
▁للمش	-5043
▁ويكون	-5044
▁بسهولة	-5045
▁رحلة	-5046
▁حرية	-5047
▁طلاب	-5048
▁طلبات	-5049
▁الجمهور	-5050
▁وستنجهاوس	-5051
زز	-5052
قالة	-5053
▁أجر	-5054
▁ومص	-5055
كافحة	-5056
▁أقول	-5057
▁والإن	-5058
▁حوار	-5059
▁العقد	-5060
▁التشغيل	-5061
ينه	-5062
مييز	-5063
▁حما	-5064
▁سري	-5065
▁بمعنى	-5066
▁الحاكم	-5067
▁الاعضاء	-5068
▁حضر	-5069
▁دروس	-5070
▁نقص	-5071
▁الميز	-5072
▁فش	-5073
▁ركن	-5074
▁المتهم	-5075
خيل	-5076
▁الجمع	-5077
▁القيم	-5078
▁النصر	-5079
▁ثقافة	-5080
▁الامير	-5081
ثارة	-5082
▁سبع	-5083
▁خطوة	-5084
▁منازل	-5085
وحات	-5086
▁العا	-5087
▁برئاسة	-5088
نبول	-5089
▁الكات	-5090
نز	-5091
كاء	-5092
▁تراجع	-5093
▁مميزة	-5094
▁السفير	-5095
لول	-5096
ركان	-5097
▁حقا	-5098
▁ندع	-5099
▁يبحث	-5100
▁الآية	-5101
▁الطيب	-5102
▁استعمال	-5103
▁جرائم	-5104
▁جزيرة	-5105
عيه	-5106
▁برس	-5107
▁قمة	-5108
▁واخ	-5109
▁الجي	-5110
▁تحديث	-5111
قاطعة	-5112
▁إثر	-5113
▁الرقم	-5114
▁الأفضل	-5115
▁الخرطوم	-5116
▁مرو	-5117
▁مبلغ	-5118
▁منصور	-5119
▁قا	-5120
▁حلب	-5121
كورات	-5122
▁معاوية	-5123
▁لوك	-5124
▁لحظة	-5125
روات	-5126
▁خادم	-5127
▁درجات	-5128
دائي	-5129
ريكا	-5130
▁متنوعة	-5131
▁الإيمان	-5132
راس	-5133
▁عج	-5134
ذكرة	-5135
▁اند	-5136
▁مرح	-5137
▁نقوم	-5138
ظن	-5139
حدات	-5140
▁الإت	-5141
قش	-5142
رادة	-5143
يميا	-5144
▁قطعة	-5145
▁المقدمة	-5146
▁والخبرة	-5147
ضمام	-5148
▁عنده	-5149
▁يدفع	-5150
▁الفضاء	-5151
▁الكنيسة	-5152
وطة	-5153
بياء	-5154
▁زوجته	-5155
▁مراقبة	-5156
▁الأطعمة	-5157
▁ثقة	-5158
▁العدالة	-5159
▁المباشر	-5160
▁المسؤولين	-5161
ؤكد	-5162
ديان	-5163
▁آية	-5164
▁متى	-5165
▁الشت	-5166
▁تبحث	-5167
▁شديد	-5168
زاء	-5169
شكل	-5170
▁أض	-5171
▁ظروف	-5172
شفيات	-5173
▁بعدم	-5174
▁اتجاه	-5175
▁تداول	-5176
زايد	-5177
▁تعتمد	-5178
▁جنا	-5179
▁العبد	-5180
▁سيدنا	-5181
▁مون	-5182
▁أعلم	-5183
▁عائلة	-5184
سع	-5185
▁توص	-5186
▁لنفس	-5187
▁لحقوق	-5188
▁الأحزاب	-5189
▁التجاري	-5190
تهما	-5191
▁سهل	-5192
▁عنا	-5193
▁مقب	-5194
▁أراضي	-5195
▁المطلوبة	-5196
عن	-5197
انس	-5198
جري	-5199
▁إما	-5200
▁الدكت	-5201
زون	-5202
▁صاح	-5203
▁وتخ	-5204
▁الهجوم	-5205
▁بقيادة	-5206
▁قصيرة	-5207
▁المعاد	-5208
▁اتفاقية	-5209
مائة	-5210
▁رسائل	-5211
▁الصحافة	-5212
▁فرد	-5213
▁تبلغ	-5214
جيع	-5215
هرة	-5216
▁حقق	-5217
▁ذوي	-5218
▁نشرت	-5219
▁تواصل	-5220
▁يعتمد	-5221
▁بمنطقة	-5222
▁والعالم	-5223
درجة	-5224
▁وجعل	-5225
▁التزام	-5226
▁المستشار	-5227
▁سطح	-5228
▁الاغ	-5229
▁تعيين	-5230
▁المصريين	-5231
▁انتخابات	-5232
يييي	-5233
▁صرف	-5234
▁نظم	-5235
▁يوفر	-5236
▁مهرجان	-5237
▁الأجنبية	-5238
واط	-5239
▁يقف	-5240
دائية	-5241
▁آثار	-5242
▁أرسل	-5243
يص	-5244
▁جرى	-5245
▁عيسى	-5246
▁الاسم	-5247
▁زوجها	-5248
ؤل	-5249
بيلة	-5250
▁أوب	-5251
▁مقدم	-5252
درج	-5253
▁الكشف	-5254
▁مصلحة	-5255
▁التابع	-5256
▁الشؤون	-5257
▁الحريري	-5258
▁الشيطان	-5259
▁يضع	-5260
ويورك	-5261
▁وقبل	-5262
▁الفنادق	-5263
▁قصر	-5264
▁تزيد	-5265
▁ويجب	-5266
▁تقارير	-5267
▁الأسباب	-5268
وائية	-5269
▁الاق	-5270
▁السكان	-5271
▁المنتج	-5272
ظبي	-5273
وقة	-5274
ملكة	-5275
▁طيب	-5276
▁فيصل	-5277
▁واخت	-5278
▁العدو	-5279
▁الاتجاه	-5280
شرت	-5281
▁طر	-5282
▁التض	-5283
▁الثقة	-5284
▁الإنجليزية	-5285
▁قواعد	-5286
▁يعاني	-5287
▁السياحية	-5288
فير	-5289
بلس	-5290
▁كوم	-5291
▁وقعت	-5292
▁المتوقع	-5293
قيت	-5294
▁إج	-5295
▁جر	-5296
▁أولى	-5297
▁تتعلق	-5298
كرا	-5299
لاه	-5300
امرة	-5301
وعات	-5302
▁قادر	-5303
▁ووضع	-5304
ارم	-5305
ركم	-5306
ارين	-5307
ساتين	-5308
▁التعبير	-5309
عاة	-5310
▁صباحا	-5311
▁الحماية	-5312
تيات	-5313
▁الجهود	-5314
بعاد	-5315
ولاية	-5316
▁عائل	-5317
▁كمال	-5318
▁طبيعة	-5319
▁للمنت	-5320
▁الفنانة	-5321
▁الكاملة	-5322
ارته	-5323
▁شقق	-5324
▁صنا	-5325
▁ظهرت	-5326
▁ملتقى	-5327
▁لمعاينة	-5328
▁القض	-5329
▁حينما	-5330
ئون	-5331
▁أمين	-5332
▁الخصوص	-5333
جنب	-5334
وداء	-5335
▁بكم	-5336
▁عال	-5337
▁للمن	-5338
▁موسم	-5339
▁للجميع	-5340
غوط	-5341
▁يشت	-5342
▁فيهم	-5343
▁الملت	-5344
▁الذكية	-5345
▁الإيرانية	-5346
▁أظهر	-5347
▁الكر	-5348
▁شعار	-5349
▁لسان	-5350
▁الأصلي	-5351
ندات	-5352
▁وبه	-5353
عدل	-5354
▁حرم	-5355
▁قدي	-5356
▁يدي	-5357
▁لسنة	-5358
▁مدرب	-5359
▁وأنت	-5360
▁الدفع	-5361
▁الرئاسة	-5362
▁الصحيفة	-5363
▁الطبيعة	-5364
اركين	-5365
▁بلدة	-5366
▁باللغة	-5367
▁قرارات	-5368
ابق	-5369
امنة	-5370
ناها	-5371
▁يعطي	-5372
▁بخصوص	-5373
▁الفرصة	-5374
قدام	-5375
يمات	-5376
▁تؤدي	-5377
▁والتى	-5378
حك	-5379
ئيات	-5380
▁وأب	-5381
▁تذكر	-5382
▁كندا	-5383
▁ندعوك	-5384
▁وتطوير	-5385
ؤه	-5386
▁فخ	-5387
ظيمة	-5388
سبانيا	-5389
▁تركيب	-5390
ائص	-5391
فار	-5392
فيدة	-5393
▁محطة	-5394
▁المسيحي	-5395
تمكن	-5396
طرية	-5397
▁سلطة	-5398
▁قريب	-5399
▁الكلمة	-5400
▁الأساسي	-5401
كمل	-5402
▁آب	-5403
▁اعتقال	-5404
▁سرعة	-5405
▁تقنية	-5406
عمة	-5407
ميه	-5408
يور	-5409
▁نيس	-5410
▁للتع	-5411
▁مسرح	-5412
▁بلدية	-5413
▁الدراسي	-5414
▁جمهورية	-5415
اصر	-5416
تمام	-5417
جلات	-5418
▁اهم	-5419
▁نجم	-5420
▁تشير	-5421
▁قررت	-5422
▁الارض	-5423
▁الكتابة	-5424
ذاء	-5425
▁ثان	-5426
▁وجميع	-5427
▁الشعوب	-5428
▁بتقديم	-5429
▁ماليزيا	-5430
وهم	-5431
▁الحص	-5432
▁ليكون	-5433
▁المريض	-5434
▁الجميلة	-5435
▁الطائرة	-5436
▁المستشفى	-5437
عيين	-5438
▁مها	-5439
▁يدل	-5440
▁مؤشر	-5441
▁نجوم	-5442
▁الوحي	-5443
▁يضم	-5444
▁الإجتما	-5445
▁مسؤولية	-5446
ئمة	-5447
▁يخص	-5448
▁صديق	-5449
▁أبطال	-5450
▁الجلد	-5451
▁بموجب	-5452
▁العناصر	-5453
▁توقف	-5454
▁ألعاب	-5455
▁جريدة	-5456
▁قي	-5457
▁ورق	-5458
▁أشار	-5459
املات	-5460
راسات	-5461
▁المقرر	-5462
▁بالقرب	-5463
▁واد	-5464
▁العيد	-5465
اعي	-5466
جرين	-5467
▁بالاض	-5468
▁المبارك	-5469
▁النفسية	-5470
▁الصينية	-5471
▁سان	-5472
▁معدل	-5473
▁اعتبر	-5474
▁غالبا	-5475
▁الألوان	-5476
▁الأماكن	-5477
صبحت	-5478
▁زال	-5479
▁معي	-5480
▁التنا	-5481
▁الزراعة	-5482
▁تصبح	-5483
▁مناق	-5484
▁دولية	-5485
جمال	-5486
▁وكن	-5487
▁نقول	-5488
▁يتعرض	-5489
▁الطيران	-5490
▁هش	-5491
بيعات	-5492
▁أماكن	-5493
▁الأكا	-5494
▁منتدي	-5495
▁افتتاح	-5496
▁سفر	-5497
▁السجن	-5498
زت	-5499
▁مين	-5500
▁للمؤ	-5501
▁ظاهرة	-5502
▁الأسهم	-5503
▁والتنمية	-5504
لاص	-5505
▁سك	-5506
▁دير	-5507
▁تطور	-5508
▁إنجاز	-5509
▁سلامة	-5510
▁السوريين	-5511
▁مدن	-5512
▁تصدر	-5513
▁الترا	-5514
▁البشرة	-5515
▁الديني	-5516
▁الحقيقية	-5517
▁بتع	-5518
▁مرس	-5519
▁وعلي	-5520
جموعات	-5521
▁الامارات	-5522
ابيع	-5523
طاعم	-5524
▁باع	-5525
اهرات	-5526
▁مربع	-5527
▁سنويا	-5528
▁الشديد	-5529
▁وتعالى	-5530
▁جبل	-5531
▁ممثل	-5532
▁الصادق	-5533
▁بمس	-5534
▁الجيل	-5535
▁بسيطة	-5536
▁العميل	-5537
ريج	-5538
▁معدات	-5539
▁ينتظر	-5540
▁العاملة	-5541
راقب	-5542
▁الوار	-5543
داب	-5544
ربت	-5545
▁الخال	-5546
▁مدون	-5547
▁المعنية	-5548
▁بقية	-5549
▁قدمت	-5550
▁نساء	-5551
▁إسماعيل	-5552
يض	-5553
هلا	-5554
وجة	-5555
▁انك	-5556
▁رون	-5557
▁سيت	-5558
▁هما	-5559
▁جزءا	-5560
▁التراث	-5561
▁القائم	-5562
▁كاميرات	-5563
▁أمور	-5564
▁الخلف	-5565
▁المدرب	-5566
▁الرواية	-5567
▁اليمنية	-5568
▁التقليدية	-5569
▁بجودة	-5570
▁والتق	-5571
▁الاثاث	-5572
▁أبا	-5573
▁إذن	-5574
▁تحكم	-5575
▁التكنولوجيا	-5576
▁انشاء	-5577
▁حقيقية	-5578
▁انع	-5579
▁يطلق	-5580
وزير	-5581
▁علوم	-5582
▁بجانب	-5583
▁الخلاف	-5584
▁الساحة	-5585
▁جون	-5586
▁كول	-5587
▁رابط	-5588
▁الأحيان	-5589
▁السادسة	-5590
▁بسيط	-5591
▁مسار	-5592
▁مطلوب	-5593
▁مملكة	-5594
▁والأن	-5595
▁العقوبات	-5596
شرح	-5597
هدد	-5598
هلاك	-5599
▁خلفية	-5600
▁عمي	-5601
▁القبض	-5602
▁خلفيات	-5603
▁ويق	-5604
هادات	-5605
▁درهم	-5606
برنامج	-5607
ولايات	-5608
▁القصص	-5609
▁قوي	-5610
▁يأخذ	-5611
▁يكتب	-5612
▁عالمية	-5613
▁لتقديم	-5614
▁وأضافت	-5615
وكب	-5616
وقيت	-5617
▁الشب	-5618
▁تدريب	-5619
▁رغ	-5620
▁ملاح	-5621
▁توكيل	-5622
▁رئاسة	-5623
عاء	-5624
قوب	-5625
هلية	-5626
▁الحرة	-5627
▁سيناء	-5628
▁موجود	-5629
▁الموجود	-5630
▁الزراعية	-5631
طلة	-5632
▁قيل	-5633
▁اعمال	-5634
▁تقييم	-5635
▁الشيعة	-5636
▁العالية	-5637
ديال	-5638
▁صاد	-5639
▁منش	-5640
بارية	-5641
▁جعفر	-5642
▁سموه	-5643
▁الآثار	-5644
▁جس	-5645
▁اتخذ	-5646
▁ببعض	-5647
▁فاز	-5648
▁وبم	-5649
▁الطف	-5650
▁الوك	-5651
▁ينظر	-5652
▁المركزية	-5653
▁فاط	-5654
▁بقيمة	-5655
▁الاستاذ	-5656
كتابة	-5657
▁سمعت	-5658
▁فوائد	-5659
حلة	-5660
▁سقط	-5661
قيقات	-5662
▁اثاث	-5663
▁الافت	-5664
▁المقت	-5665
▁النشر	-5666
ذاكرة	-5667
▁ساح	-5668
▁متك	-5669
▁ومل	-5670
▁أشكال	-5671
▁ادارة	-5672
▁التفا	-5673
▁سلطان	-5674
▁الزمالك	-5675
ياته	-5676
▁تقت	-5677
لائكة	-5678
▁بوجود	-5679
▁نموذج	-5680
عله	-5681
▁يوتيوب	-5682
▁النيابة	-5683
ائفة	-5684
خراج	-5685
▁شات	-5686
▁مسجد	-5687
▁إرسال	-5688
▁التركيز	-5689
درة	-5690
▁تموز	-5691
▁اصلاح	-5692
▁المرج	-5693
▁بمث	-5694
▁تأسيس	-5695
▁الشروط	-5696
▁الشخصيات	-5697
▁الألمانية	-5698
▁ضم	-5699
▁موت	-5700
▁إصلاح	-5701
▁بجميع	-5702
▁الحملة	-5703
▁بإمكان	-5704
ليلة	-5705
ويلا	-5706
▁ورح	-5707
▁ساحة	-5708
▁طارق	-5709
▁اتصال	-5710
▁الأدب	-5711
راوح	-5712
قلين	-5713
▁تفا	-5714
▁يدعو	-5715
حكم	-5716
جنبي	-5717
▁فشل	-5718
▁خبرة	-5719
▁خطوات	-5720
▁التخلص	-5721
▁النسخة	-5722
▁الهجرة	-5723
▁فلي	-5724
▁إليك	-5725
▁تحصل	-5726
▁غاية	-5727
▁حلقات	-5728
▁منهما	-5729
▁التدخل	-5730
بدال	-5731
▁قيا	-5732
▁شؤون	-5733
▁انتهى	-5734
▁وتقديم	-5735
▁توقيع	-5736
▁القناة	-5737
ــــــــــــــــ	-5738
▁وسيلة	-5739
▁الحمام	-5740
▁الهواتف	-5741
دب	-5742
▁الوث	-5743
▁للمرة	-5744
▁اختبار	-5745
▁الشهيد	-5746
▁الكامل	-5747
▁العنوان	-5748
هى	-5749
خابية	-5750
▁آذار	-5751
▁جوجل	-5752
▁يتطلب	-5753
▁الراحل	-5754
لاميذ	-5755
▁سلوك	-5756
▁أمل	-5757
▁تبين	-5758
▁الصغير	-5759
▁المراه	-5760
▁أقرب	-5761
▁العج	-5762
▁عباد	-5763
▁رام	-5764
▁سوء	-5765
▁قوى	-5766
▁تختلف	-5767
▁العش	-5768
▁حصلت	-5769
▁ولهذا	-5770
▁مديرية	-5771
حام	-5772
▁سمي	-5773
▁صدي	-5774
▁بعمل	-5775
▁عامل	-5776
▁أفكار	-5777
▁مضيفا	-5778
▁قس	-5779
▁الكتر	-5780
▁بكثير	-5781
▁مراجعة	-5782
▁نرى	-5783
▁وصح	-5784
▁أفلام	-5785
▁الإله	-5786
▁القوم	-5787
جهود	-5788
▁الملي	-5789
▁تنمية	-5790
▁الواقعة	-5791
▁اجتماعية	-5792
▁دورا	-5793
▁مقات	-5794
▁الالكتروني	-5795
▁صحفي	-5796
▁عقود	-5797
▁مئات	-5798
▁المنازل	-5799
ويب	-5800
▁تور	-5801
▁مدارس	-5802
▁الشبكة	-5803
افلة	-5804
▁هاد	-5805
▁الجنس	-5806
▁الطرف	-5807
▁السويس	-5808
▁إير	-5809
▁ارض	-5810
▁القنوات	-5811
▁المخدرات	-5812
روري	-5813
▁أرج	-5814
▁لمت	-5815
▁أنني	-5816
▁البرم	-5817
▁هنالك	-5818
▁والتص	-5819
▁السياق	-5820
▁الشهداء	-5821
▁بالدمام	-5822
▁السلم	-5823
▁رسميا	-5824
▁نهائي	-5825
▁القيامة	-5826
▁القرارات	-5827
عيا	-5828
▁وذ	-5829
بحاث	-5830
▁خطأ	-5831
تحانات	-5832
▁لمزيد	-5833
▁الأهداف	-5834
▁الكهربائية	-5835
▁صع	-5836
▁تقد	-5837
▁فضل	-5838
▁يرد	-5839
▁إلكتر	-5840
▁مراحل	-5841
▁دام	-5842
▁تصرف	-5843
▁العضو	-5844
▁الفكرة	-5845
▁الأسلحة	-5846
لس	-5847
لون	-5848
سلطة	-5849
▁التخصص	-5850
▁تسعى	-5851
قس	-5852
▁عي	-5853
رابة	-5854
▁تملك	-5855
▁المعم	-5856
▁تحليل	-5857
صم	-5858
▁الإع	-5859
▁يحيى	-5860
▁تتضمن	-5861
▁قريبا	-5862
▁الديمقراطي	-5863
بادي	-5864
ماعة	-5865
▁فأن	-5866
▁الزمان	-5867
▁لاع	-5868
▁ايام	-5869
▁دونالد	-5870
▁النتيجة	-5871
▁المستخدمين	-5872
▁رأيت	-5873
حرص	-5874
شاب	-5875
وقرا	-5876
▁الكلية	-5877
نيك	-5878
سيطر	-5879
وريت	-5880
▁بحر	-5881
▁أجمل	-5882
▁خيار	-5883
▁وقام	-5884
▁رسمية	-5885
وأ	-5886
اناة	-5887
باحة	-5888
▁الما	-5889
▁تسمح	-5890
▁تعاني	-5891
▁السوفي	-5892
بس	-5893
فز	-5894
▁الأقصى	-5895
▁الصحابة	-5896
▁الخيارات	-5897
▁النهائية	-5898
▁ومد	-5899
▁الفا	-5900
▁الدرجة	-5901
▁القيمة	-5902
▁الأفكار	-5903
▁التخطيط	-5904
▁زايد	-5905
كسر	-5906
دائق	-5907
▁هجوم	-5908
▁خبراء	-5909
▁حام	-5910
▁لقب	-5911
▁تهدف	-5912
▁يقبل	-5913
▁لضمان	-5914
▁موجودة	-5915
▁بالمدينة	-5916
أكد	-5917
هيار	-5918
▁جديدا	-5919
▁بالصور	-5920
▁لمست	-5921
▁تواجد	-5922
▁طائرة	-5923
▁الإعلامي	-5924
ركه	-5925
لفا	-5926
رعة	-5927
▁أني	-5928
▁تكر	-5929
▁وكذا	-5930
▁الجلسة	-5931
▁البق	-5932
ديوهات	-5933
▁التداول	-5934
▁هند	-5935
▁مطلع	-5936
▁الجهة	-5937
▁سعودي	-5938
▁التشري	-5939
▁خارجية	-5940
لقاء	-5941
يلول	-5942
▁تابع	-5943
▁الإنت	-5944
▁انخفاض	-5945
افا	-5946
ذان	-5947
طيات	-5948
▁انس	-5949
▁تكوين	-5950
خبة	-5951
▁فرح	-5952
▁حصول	-5953
▁وانا	-5954
▁	-5955
ا	-5956
ل	-5957
ي	-5958
م	-5959
و	-5960
ن	-5961
ر	-5962
ت	-5963
ب	-5964
ع	-5965
ة	-5966
د	-5967
ه	-5968
ف	-5969
س	-5970
ق	-5971
ك	-5972
ح	-5973
أ	-5974
ج	-5975
ص	-5976
ش	-5977
ى	-5978
،	-5979
ط	-5980
خ	-5981
إ	-5982
ض	-5983
ذ	-5984
ز	-5985
ث	-5986
ئ	-5987
غ	-5988
ء	-5989
ظ	-5990
ـ	-5991
ؤ	-5992
آ	-5993
؟	-5994
؛	-5995
